// This file is automatically generated by NPU compiler.
const unsigned int total_size = 10736;
const unsigned int npu_size = 9128;
const char *version = "1.5.5";
const char *pb_md5 = "3d022564a4e45cd0f0530d1d672456bc";
const char *npu_unit = "NPU32";
const char *model_info = "(20211101163834)";

typedef unsigned short npu_data_t;

struct input {
	npu_data_t input_x[1][784];
} __attribute__ ((packed));

struct output {
	float result[1][10];
} __attribute__ ((packed));

struct in_out {
	npu_data_t input_x[1][784];
	float result[1][10];
} __attribute__ ((packed));


const unsigned char cmd_content[140] __attribute__ ((aligned(4))) = {
	0x40, 0x01, 0x02, 0x00, 0x00, 0x00, 0x00, 0x30, 0x80, 0x0c, 
	0x00, 0x60, 0x00, 0x00, 0x00, 0x10, 0x00, 0x00, 0x00, 0x00, 
	0x00, 0x00, 0x00, 0x60, 0x0a, 0x00, 0x10, 0x03, 0x0a, 0x10, 
	0x01, 0x19, 0x00, 0x00, 0x00, 0x01, 0x00, 0x00, 0x00, 0x00, 
	0x81, 0xb9, 0xba, 0x1d, 0x00, 0x64, 0x00, 0x80, 0x01, 0x03, 
	0x02, 0x00, 0x00, 0x00, 0x00, 0x10, 0xe0, 0x22, 0x00, 0x60, 
	0x00, 0x00, 0x00, 0x00, 0x14, 0x00, 0x00, 0x10, 0x05, 0x00, 
	0x00, 0x00, 0x0a, 0x01, 0x10, 0x00, 0x0a, 0x00, 0x0a, 0x00, 
	0x0a, 0x00, 0x0a, 0x00, 0x00, 0x00, 0x00, 0x00, 0x00, 0x00, 
	0x00, 0x00, 0x01, 0x01, 0x00, 0x00, 0x00, 0x00, 0x00, 0x70, 
	0x14, 0x00, 0x00, 0x10, 0x00, 0x00, 0x00, 0x00, 0x00, 0x00, 
	0x00, 0x00, 0x00, 0x00, 0x00, 0x40, 0x07, 0x00, 0x01, 0x00, 
	0x0a, 0x01, 0x10, 0x00, 0x0a, 0x00, 0x0a, 0x00, 0x0a, 0x00, 
	0x0a, 0x00, 0x00, 0x00, 0x00, 0x00, 0x00, 0x00, 0x00, 0x00, 
};
const unsigned char weight_content[8948] __attribute__ ((aligned(4))) = {
	0x00, 0x00, 0x00, 0x00, 0x00, 0x00, 0x00, 0x00, 0x00, 0x00, 
	0x00, 0x00, 0x00, 0x00, 0x00, 0x00, 0x00, 0x00, 0x00, 0x00, 
	0x00, 0x00, 0x00, 0x00, 0x00, 0x00, 0x00, 0x00, 0x00, 0x00, 
	0x00, 0x00, 0x00, 0x00, 0x00, 0x00, 0x00, 0x00, 0x00, 0x00, 
	0x00, 0x00, 0x00, 0x00, 0x00, 0x00, 0x00, 0x00, 0x00, 0x00, 
	0x00, 0x00, 0x02, 0x00, 0x00, 0x00, 0x00, 0x00, 0x00, 0x00, 
	0x00, 0x00, 0x00, 0x00, 0x00, 0x00, 0x00, 0x00, 0x00, 0x00, 
	0x00, 0x00, 0x00, 0x00, 0x00, 0x00, 0x00, 0x00, 0x00, 0x00, 
	0x00, 0x00, 0x00, 0x00, 0x00, 0x00, 0x00, 0x00, 0x00, 0x00, 
	0x00, 0x00, 0x00, 0x00, 0x00, 0x00, 0x00, 0x00, 0x00, 0x00, 
	0x00, 0x00, 0x00, 0x00, 0x00, 0x00, 0x00, 0x00, 0x00, 0x00, 
	0x00, 0x00, 0x00, 0x00, 0x00, 0x00, 0x00, 0x00, 0x00, 0x00, 
	0x00, 0x00, 0x00, 0x00, 0x00, 0x00, 0x00, 0x00, 0x00, 0x00, 
	0x00, 0x00, 0x00, 0x00, 0x00, 0x00, 0x0a, 0x00, 0x00, 0x00, 
	0x0a, 0x00, 0x00, 0x00, 0x0a, 0x00, 0x00, 0x00, 0x0a, 0x00, 
	0x00, 0x00, 0x0a, 0x00, 0x00, 0x00, 0xaa, 0x00, 0x00, 0x00, 
	0xab, 0x40, 0x00, 0x00, 0xaa, 0x00, 0x00, 0x00, 0x4a, 0x00, 
	0x00, 0x00, 0x6a, 0x00, 0x00, 0x00, 0xaa, 0x40, 0x00, 0x00, 
	0x0a, 0x00, 0x00, 0x00, 0x2a, 0x00, 0x00, 0x00, 0x2a, 0x00, 
	0x00, 0x00, 0x0a, 0x00, 0x00, 0x00, 0x0a, 0x00, 0x00, 0x00, 
	0x0a, 0x00, 0x00, 0x00, 0x00, 0x00, 0x00, 0x00, 0x00, 0x00, 
	0x00, 0x00, 0x00, 0x00, 0x00, 0x00, 0x00, 0x00, 0x00, 0x00, 
	0x00, 0x00, 0x00, 0x00, 0x00, 0x00, 0x00, 0x00, 0x00, 0x00, 
	0x00, 0x00, 0x00, 0x00, 0x00, 0x00, 0x00, 0x00, 0x00, 0x00, 
	0x00, 0x00, 0x00, 0x00, 0x00, 0x00, 0x00, 0x00, 0x0a, 0x00, 
	0x00, 0x00, 0x0a, 0x00, 0x00, 0x00, 0xca, 0x00, 0x00, 0x00, 
	0xfe, 0x80, 0x00, 0x00, 0xff, 0xc0, 0x00, 0x00, 0xff, 0xc0, 
	0x00, 0x00, 0xbf, 0xc0, 0x00, 0x00, 0xef, 0xc0, 0x00, 0x00, 
	0xef, 0xc0, 0x00, 0x00, 0xff, 0xc0, 0x00, 0x00, 0xff, 0xc0, 
	0x00, 0x00, 0xdf, 0xc0, 0x00, 0x00, 0xbe, 0xc0, 0x00, 0x00, 
	0xba, 0xc0, 0x00, 0x00, 0xfe, 0xc0, 0x00, 0x00, 0xfe, 0x80, 
	0x00, 0x00, 0xae, 0x80, 0x00, 0x00, 0x2e, 0x00, 0x00, 0x00, 
	0x20, 0x00, 0x00, 0x00, 0x22, 0x00, 0x00, 0x00, 0x00, 0x00, 
	0x00, 0x00, 0x00, 0x00, 0x00, 0x00, 0x00, 0x00, 0x00, 0x00, 
	0x00, 0x00, 0x00, 0x00, 0x00, 0x00, 0x00, 0x00, 0x00, 0x00, 
	0x00, 0x00, 0x02, 0x00, 0x00, 0x00, 0x96, 0x00, 0x00, 0x00, 
	0x9e, 0x00, 0x00, 0x00, 0xff, 0x80, 0x00, 0x00, 0xff, 0xc0, 
	0x00, 0x00, 0xff, 0xc0, 0x00, 0x00, 0xff, 0xc0, 0x00, 0x00, 
	0xff, 0xc0, 0x00, 0x00, 0xff, 0xc0, 0x00, 0x00, 0xff, 0xc0, 
	0x00, 0x00, 0xff, 0xc0, 0x00, 0x00, 0xff, 0xc0, 0x00, 0x00, 
	0xfb, 0xc0, 0x00, 0x00, 0xff, 0xc0, 0x00, 0x00, 0xff, 0xc0, 
	0x00, 0x00, 0xff, 0xc0, 0x00, 0x00, 0xff, 0xc0, 0x00, 0x00, 
	0xf7, 0xc0, 0x00, 0x00, 0xfe, 0x40, 0x00, 0x00, 0xfe, 0x80, 
	0x00, 0x00, 0xf6, 0x00, 0x00, 0x00, 0x04, 0x00, 0x00, 0x00, 
	0x02, 0x00, 0x00, 0x00, 0x00, 0x00, 0x00, 0x00, 0x00, 0x00, 
	0x00, 0x00, 0x00, 0x00, 0x00, 0x00, 0x00, 0x00, 0x00, 0x00, 
	0x10, 0x00, 0x00, 0x00, 0xbe, 0x00, 0x00, 0x00, 0xfd, 0x80, 
	0x00, 0x00, 0xbd, 0xc0, 0x00, 0x00, 0xff, 0xc0, 0x00, 0x00, 
	0xff, 0xc0, 0x00, 0x00, 0xff, 0xc0, 0x00, 0x00, 0xff, 0xc0, 
	0x00, 0x00, 0xff, 0xc0, 0x00, 0x00, 0xff, 0xc0, 0x00, 0x00, 
	0xff, 0xc0, 0x00, 0x00, 0xff, 0xc0, 0x00, 0x00, 0xff, 0xc0, 
	0x00, 0x00, 0xff, 0xc0, 0x00, 0x00, 0xff, 0x40, 0x00, 0x00, 
	0xff, 0xc0, 0x00, 0x00, 0xff, 0xc0, 0x00, 0x00, 0xfb, 0xc0, 
	0x00, 0x00, 0xff, 0xc0, 0x00, 0x00, 0xff, 0xc0, 0x00, 0x00, 
	0xff, 0xc0, 0x00, 0x00, 0xff, 0xc0, 0x00, 0x00, 0xee, 0x80, 
	0x00, 0x00, 0x00, 0x80, 0x00, 0x00, 0x00, 0x00, 0x00, 0x00, 
	0x00, 0x00, 0x00, 0x00, 0x00, 0x00, 0x00, 0x00, 0x00, 0x00, 
	0x00, 0x00, 0x16, 0x80, 0x00, 0x00, 0x9e, 0xc0, 0x00, 0x00, 
	0xff, 0xc0, 0x00, 0x00, 0xff, 0xc0, 0x00, 0x00, 0xfe, 0xc0, 
	0x00, 0x00, 0xff, 0xc0, 0x00, 0x00, 0xff, 0xc0, 0x00, 0x00, 
	0xff, 0xc0, 0x00, 0x00, 0xff, 0xc0, 0x00, 0x00, 0xff, 0xc0, 
	0x00, 0x00, 0xff, 0x80, 0x00, 0x00, 0xff, 0xc0, 0x00, 0x00, 
	0xff, 0xc0, 0x00, 0x00, 0xff, 0xc0, 0x00, 0x00, 0xfd, 0xc0, 
	0x00, 0x00, 0xff, 0xc0, 0x00, 0x00, 0xff, 0xc0, 0x00, 0x00, 
	0xff, 0xc0, 0x00, 0x00, 0x7f, 0xc0, 0x00, 0x00, 0xff, 0xc0, 
	0x00, 0x00, 0xff, 0xc0, 0x00, 0x00, 0xff, 0xc0, 0x00, 0x00, 
	0xff, 0xc0, 0x00, 0x00, 0xec, 0x80, 0x00, 0x00, 0x02, 0x00, 
	0x00, 0x00, 0x00, 0x00, 0x00, 0x00, 0x00, 0x00, 0x00, 0x00, 
	0x11, 0x00, 0x00, 0x00, 0x1f, 0xc0, 0x00, 0x00, 0xbd, 0xc0, 
	0x00, 0x00, 0xff, 0xc0, 0x00, 0x00, 0xff, 0xc0, 0x00, 0x00, 
	0xff, 0xc0, 0x00, 0x00, 0xff, 0xc0, 0x00, 0x00, 0xf7, 0xc0, 
	0x00, 0x00, 0xff, 0xc0, 0x00, 0x00, 0xff, 0xc0, 0x00, 0x00, 
	0xff, 0xc0, 0x00, 0x00, 0xff, 0xc0, 0x00, 0x00, 0xff, 0xc0, 
	0x00, 0x00, 0xff, 0xc0, 0x00, 0x00, 0xff, 0xc0, 0x00, 0x00, 
	0xff, 0xc0, 0x00, 0x00, 0xff, 0xc0, 0x00, 0x00, 0xff, 0xc0, 
	0x00, 0x00, 0xef, 0xc0, 0x00, 0x00, 0xff, 0xc0, 0x00, 0x00, 
	0xff, 0xc0, 0x00, 0x00, 0xff, 0xc0, 0x00, 0x00, 0xff, 0xc0, 
	0x00, 0x00, 0xff, 0xc0, 0x00, 0x00, 0xff, 0xc0, 0x00, 0x00, 
	0x84, 0x00, 0x00, 0x00, 0x00, 0x00, 0x00, 0x00, 0x00, 0x00, 
	0x00, 0x00, 0x25, 0x40, 0x00, 0x00, 0xbf, 0xc0, 0x00, 0x00, 
	0xff, 0xc0, 0x00, 0x00, 0xff, 0xc0, 0x00, 0x00, 0xff, 0xc0, 
	0x00, 0x00, 0xff, 0xc0, 0x00, 0x00, 0xff, 0xc0, 0x00, 0x00, 
	0xff, 0xc0, 0x00, 0x00, 0xff, 0xc0, 0x00, 0x00, 0xff, 0xc0, 
	0x00, 0x00, 0xff, 0xc0, 0x00, 0x00, 0xff, 0xc0, 0x00, 0x00, 
	0xff, 0xc0, 0x00, 0x00, 0xdf, 0xc0, 0x00, 0x00, 0xff, 0xc0, 
	0x00, 0x00, 0xff, 0xc0, 0x00, 0x00, 0xff, 0xc0, 0x00, 0x00, 
	0xff, 0xc0, 0x00, 0x00, 0xff, 0xc0, 0x00, 0x00, 0xbf, 0xc0, 
	0x00, 0x00, 0xff, 0xc0, 0x00, 0x00, 0xff, 0xc0, 0x00, 0x00, 
	0xff, 0xc0, 0x00, 0x00, 0xff, 0xc0, 0x00, 0x00, 0xef, 0xc0, 
	0x00, 0x00, 0x84, 0x00, 0x00, 0x00, 0x00, 0x00, 0x00, 0x00, 
	0x01, 0x40, 0x00, 0x00, 0x25, 0xc0, 0x00, 0x00, 0xbf, 0xc0, 
	0x00, 0x00, 0xff, 0xc0, 0x00, 0x00, 0xff, 0xc0, 0x00, 0x00, 
	0xff, 0xc0, 0x00, 0x00, 0xff, 0xc0, 0x00, 0x00, 0xff, 0xc0, 
	0x00, 0x00, 0xff, 0xc0, 0x00, 0x00, 0xff, 0xc0, 0x00, 0x00, 
	0xff, 0xc0, 0x00, 0x00, 0xff, 0xc0, 0x00, 0x00, 0xff, 0xc0, 
	0x00, 0x00, 0xff, 0xc0, 0x00, 0x00, 0xff, 0xc0, 0x00, 0x00, 
	0xff, 0xc0, 0x00, 0x00, 0xff, 0xc0, 0x00, 0x00, 0xff, 0xc0, 
	0x00, 0x00, 0xff, 0xc0, 0x00, 0x00, 0xff, 0xc0, 0x00, 0x00, 
	0xff, 0xc0, 0x00, 0x00, 0xff, 0xc0, 0x00, 0x00, 0xff, 0xc0, 
	0x00, 0x00, 0xff, 0xc0, 0x00, 0x00, 0xff, 0xc0, 0x00, 0x00, 
	0xff, 0xc0, 0x00, 0x00, 0x04, 0x00, 0x00, 0x00, 0x00, 0x00, 
	0x00, 0x00, 0x01, 0x40, 0x00, 0x00, 0x3d, 0xc0, 0x00, 0x00, 
	0xbf, 0xc0, 0x00, 0x00, 0xff, 0xc0, 0x00, 0x00, 0xff, 0xc0, 
	0x00, 0x00, 0xff, 0xc0, 0x00, 0x00, 0xff, 0xc0, 0x00, 0x00, 
	0xff, 0xc0, 0x00, 0x00, 0xff, 0xc0, 0x00, 0x00, 0xff, 0xc0, 
	0x00, 0x00, 0xff, 0xc0, 0x00, 0x00, 0xff, 0xc0, 0x00, 0x00, 
	0xff, 0xc0, 0x00, 0x00, 0xff, 0xc0, 0x00, 0x00, 0xff, 0xc0, 
	0x00, 0x00, 0xff, 0xc0, 0x00, 0x00, 0xff, 0xc0, 0x00, 0x00, 
	0xff, 0xc0, 0x00, 0x00, 0xff, 0xc0, 0x00, 0x00, 0xff, 0xc0, 
	0x00, 0x00, 0xff, 0xc0, 0x00, 0x00, 0xff, 0xc0, 0x00, 0x00, 
	0xff, 0xc0, 0x00, 0x00, 0xff, 0xc0, 0x00, 0x00, 0xff, 0xc0, 
	0x00, 0x00, 0xff, 0xc0, 0x00, 0x00, 0x05, 0x80, 0x00, 0x00, 
	0x00, 0x00, 0x00, 0x00, 0x01, 0x40, 0x00, 0x00, 0x1f, 0xc0, 
	0x00, 0x00, 0xff, 0xc0, 0x00, 0x00, 0xff, 0xc0, 0x00, 0x00, 
	0xff, 0x80, 0x00, 0x00, 0xff, 0xc0, 0x00, 0x00, 0xff, 0xc0, 
	0x00, 0x00, 0xff, 0xc0, 0x00, 0x00, 0xff, 0xc0, 0x00, 0x00, 
	0xff, 0xc0, 0x00, 0x00, 0x7f, 0xc0, 0x00, 0x00, 0xff, 0xc0, 
	0x00, 0x00, 0xef, 0xc0, 0x00, 0x00, 0xff, 0xc0, 0x00, 0x00, 
	0xff, 0xc0, 0x00, 0x00, 0xff, 0x80, 0x00, 0x00, 0xff, 0xc0, 
	0x00, 0x00, 0xff, 0xc0, 0x00, 0x00, 0xff, 0xc0, 0x00, 0x00, 
	0xff, 0xc0, 0x00, 0x00, 0xff, 0xc0, 0x00, 0x00, 0xff, 0xc0, 
	0x00, 0x00, 0xff, 0xc0, 0x00, 0x00, 0xff, 0xc0, 0x00, 0x00, 
	0xff, 0xc0, 0x00, 0x00, 0xcf, 0x40, 0x00, 0x00, 0x06, 0x80, 
	0x00, 0x00, 0x00, 0x00, 0x00, 0x00, 0x09, 0x40, 0x00, 0x00, 
	0x9d, 0xc0, 0x00, 0x00, 0xff, 0xc0, 0x00, 0x00, 0xff, 0xc0, 
	0x00, 0x00, 0xfb, 0xc0, 0x00, 0x00, 0xff, 0xc0, 0x00, 0x00, 
	0xff, 0xc0, 0x00, 0x00, 0xfe, 0xc0, 0x00, 0x00, 0xff, 0xc0, 
	0x00, 0x00, 0xff, 0xc0, 0x00, 0x00, 0xff, 0xc0, 0x00, 0x00, 
	0xff, 0xc0, 0x00, 0x00, 0xff, 0xc0, 0x00, 0x00, 0xff, 0xc0, 
	0x00, 0x00, 0xff, 0xc0, 0x00, 0x00, 0xff, 0xc0, 0x00, 0x00, 
	0xff, 0xc0, 0x00, 0x00, 0x7f, 0xc0, 0x00, 0x00, 0xff, 0xc0, 
	0x00, 0x00, 0xff, 0xc0, 0x00, 0x00, 0xff, 0xc0, 0x00, 0x00, 
	0xff, 0xc0, 0x00, 0x00, 0xff, 0xc0, 0x00, 0x00, 0xff, 0xc0, 
	0x00, 0x00, 0xff, 0xc0, 0x00, 0x00, 0xcf, 0xc0, 0x00, 0x00, 
	0x00, 0x00, 0x00, 0x00, 0x00, 0x00, 0x00, 0x00, 0x09, 0x40, 
	0x00, 0x00, 0x1d, 0x40, 0x00, 0x00, 0xbf, 0xc0, 0x00, 0x00, 
	0xbf, 0xc0, 0x00, 0x00, 0xff, 0xc0, 0x00, 0x00, 0xff, 0xc0, 
	0x00, 0x00, 0xff, 0xc0, 0x00, 0x00, 0xff, 0xc0, 0x00, 0x00, 
	0xfe, 0xc0, 0x00, 0x00, 0xff, 0xc0, 0x00, 0x00, 0xff, 0xc0, 
	0x00, 0x00, 0xff, 0xc0, 0x00, 0x00, 0xff, 0x80, 0x00, 0x00, 
	0xff, 0xc0, 0x00, 0x00, 0xff, 0xc0, 0x00, 0x00, 0xff, 0xc0, 
	0x00, 0x00, 0xff, 0xc0, 0x00, 0x00, 0xff, 0xc0, 0x00, 0x00, 
	0xff, 0xc0, 0x00, 0x00, 0xff, 0xc0, 0x00, 0x00, 0xff, 0xc0, 
	0x00, 0x00, 0xff, 0xc0, 0x00, 0x00, 0xff, 0xc0, 0x00, 0x00, 
	0xff, 0xc0, 0x00, 0x00, 0x6a, 0xc0, 0x00, 0x00, 0xef, 0xc0, 
	0x00, 0x00, 0x20, 0x00, 0x00, 0x00, 0x00, 0x00, 0x00, 0x00, 
	0x09, 0x40, 0x00, 0x00, 0x19, 0x40, 0x00, 0x00, 0xbb, 0x80, 
	0x00, 0x00, 0xbf, 0xc0, 0x00, 0x00, 0xff, 0x40, 0x00, 0x00, 
	0xff, 0xc0, 0x00, 0x00, 0xff, 0xc0, 0x00, 0x00, 0xff, 0xc0, 
	0x00, 0x00, 0xff, 0xc0, 0x00, 0x00, 0xff, 0xc0, 0x00, 0x00, 
	0xff, 0xc0, 0x00, 0x00, 0xff, 0xc0, 0x00, 0x00, 0xff, 0xc0, 
	0x00, 0x00, 0xff, 0xc0, 0x00, 0x00, 0xff, 0xc0, 0x00, 0x00, 
	0xff, 0xc0, 0x00, 0x00, 0xff, 0xc0, 0x00, 0x00, 0xff, 0xc0, 
	0x00, 0x00, 0xff, 0xc0, 0x00, 0x00, 0xff, 0xc0, 0x00, 0x00, 
	0xff, 0xc0, 0x00, 0x00, 0xff, 0xc0, 0x00, 0x00, 0xff, 0xc0, 
	0x00, 0x00, 0xff, 0xc0, 0x00, 0x00, 0xf7, 0xc0, 0x00, 0x00, 
	0x6a, 0xc0, 0x00, 0x00, 0x2e, 0x00, 0x00, 0x00, 0x00, 0x00, 
	0x00, 0x00, 0x11, 0x00, 0x00, 0x00, 0x09, 0x40, 0x00, 0x00, 
	0xe3, 0xc0, 0x00, 0x00, 0xbf, 0xc0, 0x00, 0x00, 0xff, 0xc0, 
	0x00, 0x00, 0xff, 0xc0, 0x00, 0x00, 0xff, 0xc0, 0x00, 0x00, 
	0xff, 0xc0, 0x00, 0x00, 0xff, 0xc0, 0x00, 0x00, 0xff, 0xc0, 
	0x00, 0x00, 0xff, 0xc0, 0x00, 0x00, 0xff, 0xc0, 0x00, 0x00, 
	0xff, 0xc0, 0x00, 0x00, 0xff, 0xc0, 0x00, 0x00, 0xef, 0xc0, 
	0x00, 0x00, 0xff, 0xc0, 0x00, 0x00, 0xff, 0xc0, 0x00, 0x00, 
	0xff, 0xc0, 0x00, 0x00, 0xff, 0xc0, 0x00, 0x00, 0xff, 0xc0, 
	0x00, 0x00, 0xff, 0xc0, 0x00, 0x00, 0xff, 0xc0, 0x00, 0x00, 
	0xf7, 0xc0, 0x00, 0x00, 0xff, 0xc0, 0x00, 0x00, 0xff, 0xc0, 
	0x00, 0x00, 0x3e, 0xc0, 0x00, 0x00, 0x00, 0x00, 0x00, 0x00, 
	0x00, 0x00, 0x00, 0x00, 0x30, 0x00, 0x00, 0x00, 0x39, 0x40, 
	0x00, 0x00, 0xbf, 0xc0, 0x00, 0x00, 0x7f, 0xc0, 0x00, 0x00, 
	0xff, 0xc0, 0x00, 0x00, 0xff, 0xc0, 0x00, 0x00, 0xdf, 0xc0, 
	0x00, 0x00, 0xfb, 0xc0, 0x00, 0x00, 0xff, 0xc0, 0x00, 0x00, 
	0xff, 0xc0, 0x00, 0x00, 0xff, 0x40, 0x00, 0x00, 0xff, 0xc0, 
	0x00, 0x00, 0xff, 0xc0, 0x00, 0x00, 0xff, 0xc0, 0x00, 0x00, 
	0xff, 0xc0, 0x00, 0x00, 0xff, 0xc0, 0x00, 0x00, 0xff, 0xc0, 
	0x00, 0x00, 0xff, 0xc0, 0x00, 0x00, 0xff, 0xc0, 0x00, 0x00, 
	0xff, 0xc0, 0x00, 0x00, 0xff, 0xc0, 0x00, 0x00, 0xff, 0xc0, 
	0x00, 0x00, 0xff, 0xc0, 0x00, 0x00, 0xfe, 0xc0, 0x00, 0x00, 
	0xff, 0xc0, 0x00, 0x00, 0xf6, 0xc0, 0x00, 0x00, 0x22, 0x00, 
	0x00, 0x00, 0x00, 0x00, 0x00, 0x00, 0x10, 0x00, 0x00, 0x00, 
	0x30, 0x40, 0x00, 0x00, 0xbb, 0xc0, 0x00, 0x00, 0xff, 0xc0, 
	0x00, 0x00, 0xff, 0xc0, 0x00, 0x00, 0xff, 0xc0, 0x00, 0x00, 
	0xff, 0xc0, 0x00, 0x00, 0xdf, 0xc0, 0x00, 0x00, 0xff, 0xc0, 
	0x00, 0x00, 0xff, 0xc0, 0x00, 0x00, 0xf7, 0xc0, 0x00, 0x00, 
	0xff, 0xc0, 0x00, 0x00, 0xff, 0xc0, 0x00, 0x00, 0xff, 0xc0, 
	0x00, 0x00, 0xff, 0xc0, 0x00, 0x00, 0xff, 0xc0, 0x00, 0x00, 
	0xef, 0xc0, 0x00, 0x00, 0xff, 0xc0, 0x00, 0x00, 0xfb, 0xc0, 
	0x00, 0x00, 0xff, 0xc0, 0x00, 0x00, 0xff, 0xc0, 0x00, 0x00, 
	0xff, 0xc0, 0x00, 0x00, 0xff, 0xc0, 0x00, 0x00, 0xfb, 0xc0, 
	0x00, 0x00, 0xff, 0xc0, 0x00, 0x00, 0xfe, 0xc0, 0x00, 0x00, 
	0x26, 0x00, 0x00, 0x00, 0x00, 0x00, 0x00, 0x00, 0x00, 0x00, 
	0x00, 0x00, 0x94, 0x40, 0x00, 0x00, 0xfb, 0xc0, 0x00, 0x00, 
	0xff, 0xc0, 0x00, 0x00, 0xff, 0xc0, 0x00, 0x00, 0xff, 0xc0, 
	0x00, 0x00, 0xff, 0xc0, 0x00, 0x00, 0xff, 0xc0, 0x00, 0x00, 
	0xff, 0xc0, 0x00, 0x00, 0xff, 0xc0, 0x00, 0x00, 0x7f, 0xc0, 
	0x00, 0x00, 0xff, 0xc0, 0x00, 0x00, 0xff, 0xc0, 0x00, 0x00, 
	0xff, 0x40, 0x00, 0x00, 0xff, 0xc0, 0x00, 0x00, 0xff, 0xc0, 
	0x00, 0x00, 0xff, 0xc0, 0x00, 0x00, 0xff, 0xc0, 0x00, 0x00, 
	0xff, 0xc0, 0x00, 0x00, 0xff, 0xc0, 0x00, 0x00, 0xff, 0xc0, 
	0x00, 0x00, 0xff, 0xc0, 0x00, 0x00, 0xff, 0xc0, 0x00, 0x00, 
	0xff, 0xc0, 0x00, 0x00, 0xfe, 0xc0, 0x00, 0x00, 0xff, 0xc0, 
	0x00, 0x00, 0x22, 0x00, 0x00, 0x00, 0x00, 0x00, 0x00, 0x00, 
	0x00, 0x00, 0x00, 0x00, 0x34, 0x40, 0x00, 0x00, 0xff, 0xc0, 
	0x00, 0x00, 0xff, 0xc0, 0x00, 0x00, 0xff, 0xc0, 0x00, 0x00, 
	0xff, 0xc0, 0x00, 0x00, 0xff, 0xc0, 0x00, 0x00, 0xff, 0xc0, 
	0x00, 0x00, 0xff, 0xc0, 0x00, 0x00, 0xff, 0xc0, 0x00, 0x00, 
	0xff, 0xc0, 0x00, 0x00, 0xff, 0xc0, 0x00, 0x00, 0xff, 0xc0, 
	0x00, 0x00, 0xfb, 0xc0, 0x00, 0x00, 0xff, 0xc0, 0x00, 0x00, 
	0xff, 0xc0, 0x00, 0x00, 0xff, 0xc0, 0x00, 0x00, 0xff, 0xc0, 
	0x00, 0x00, 0xff, 0xc0, 0x00, 0x00, 0xff, 0xc0, 0x00, 0x00, 
	0xff, 0xc0, 0x00, 0x00, 0xff, 0xc0, 0x00, 0x00, 0xff, 0xc0, 
	0x00, 0x00, 0xff, 0xc0, 0x00, 0x00, 0xbf, 0xc0, 0x00, 0x00, 
	0x3b, 0x80, 0x00, 0x00, 0x22, 0x00, 0x00, 0x00, 0x00, 0x00, 
	0x00, 0x00, 0x01, 0x00, 0x00, 0x00, 0x34, 0xc0, 0x00, 0x00, 
	0xff, 0xc0, 0x00, 0x00, 0xff, 0xc0, 0x00, 0x00, 0xff, 0xc0, 
	0x00, 0x00, 0xff, 0xc0, 0x00, 0x00, 0xff, 0xc0, 0x00, 0x00, 
	0xff, 0xc0, 0x00, 0x00, 0xff, 0xc0, 0x00, 0x00, 0xff, 0xc0, 
	0x00, 0x00, 0xff, 0xc0, 0x00, 0x00, 0xff, 0xc0, 0x00, 0x00, 
	0xff, 0xc0, 0x00, 0x00, 0xff, 0xc0, 0x00, 0x00, 0xff, 0xc0, 
	0x00, 0x00, 0xff, 0xc0, 0x00, 0x00, 0xff, 0xc0, 0x00, 0x00, 
	0xff, 0xc0, 0x00, 0x00, 0xff, 0xc0, 0x00, 0x00, 0xff, 0xc0, 
	0x00, 0x00, 0xff, 0xc0, 0x00, 0x00, 0xff, 0xc0, 0x00, 0x00, 
	0xef, 0xc0, 0x00, 0x00, 0xff, 0xc0, 0x00, 0x00, 0xff, 0xc0, 
	0x00, 0x00, 0x26, 0xc0, 0x00, 0x00, 0x20, 0x00, 0x00, 0x00, 
	0x00, 0x00, 0x00, 0x00, 0x00, 0x00, 0x00, 0x00, 0x11, 0xc0, 
	0x00, 0x00, 0xff, 0xc0, 0x00, 0x00, 0xff, 0xc0, 0x00, 0x00, 
	0xff, 0xc0, 0x00, 0x00, 0xff, 0xc0, 0x00, 0x00, 0xff, 0xc0, 
	0x00, 0x00, 0xff, 0xc0, 0x00, 0x00, 0xff, 0xc0, 0x00, 0x00, 
	0xff, 0xc0, 0x00, 0x00, 0xff, 0xc0, 0x00, 0x00, 0xbf, 0xc0, 
	0x00, 0x00, 0xff, 0xc0, 0x00, 0x00, 0xff, 0xc0, 0x00, 0x00, 
	0xcf, 0x40, 0x00, 0x00, 0xff, 0xc0, 0x00, 0x00, 0xff, 0xc0, 
	0x00, 0x00, 0xff, 0x40, 0x00, 0x00, 0xff, 0xc0, 0x00, 0x00, 
	0xff, 0xc0, 0x00, 0x00, 0x7f, 0xc0, 0x00, 0x00, 0xff, 0xc0, 
	0x00, 0x00, 0xff, 0xc0, 0x00, 0x00, 0xff, 0xc0, 0x00, 0x00, 
	0xbf, 0xc0, 0x00, 0x00, 0x20, 0x80, 0x00, 0x00, 0x00, 0x00, 
	0x00, 0x00, 0x00, 0x00, 0x00, 0x00, 0x00, 0x00, 0x00, 0x00, 
	0x71, 0xc0, 0x00, 0x00, 0xff, 0xc0, 0x00, 0x00, 0xff, 0xc0, 
	0x00, 0x00, 0xff, 0xc0, 0x00, 0x00, 0xff, 0xc0, 0x00, 0x00, 
	0xff, 0xc0, 0x00, 0x00, 0xff, 0xc0, 0x00, 0x00, 0xff, 0xc0, 
	0x00, 0x00, 0xff, 0xc0, 0x00, 0x00, 0xff, 0xc0, 0x00, 0x00, 
	0xff, 0xc0, 0x00, 0x00, 0xff, 0xc0, 0x00, 0x00, 0xff, 0xc0, 
	0x00, 0x00, 0xff, 0xc0, 0x00, 0x00, 0xff, 0xc0, 0x00, 0x00, 
	0xff, 0xc0, 0x00, 0x00, 0xff, 0xc0, 0x00, 0x00, 0xff, 0xc0, 
	0x00, 0x00, 0xfd, 0xc0, 0x00, 0x00, 0xbf, 0xc0, 0x00, 0x00, 
	0xff, 0xc0, 0x00, 0x00, 0xff, 0xc0, 0x00, 0x00, 0xff, 0xc0, 
	0x00, 0x00, 0xbf, 0x80, 0x00, 0x00, 0xa0, 0x00, 0x00, 0x00, 
	0x00, 0x00, 0x00, 0x00, 0x00, 0x00, 0x00, 0x00, 0x00, 0x00, 
	0x00, 0x00, 0x75, 0xc0, 0x00, 0x00, 0xff, 0xc0, 0x00, 0x00, 
	0xff, 0xc0, 0x00, 0x00, 0xfb, 0xc0, 0x00, 0x00, 0xff, 0xc0, 
	0x00, 0x00, 0xff, 0xc0, 0x00, 0x00, 0xff, 0xc0, 0x00, 0x00, 
	0xef, 0xc0, 0x00, 0x00, 0xff, 0xc0, 0x00, 0x00, 0xff, 0xc0, 
	0x00, 0x00, 0xff, 0xc0, 0x00, 0x00, 0xff, 0xc0, 0x00, 0x00, 
	0xff, 0xc0, 0x00, 0x00, 0xff, 0xc0, 0x00, 0x00, 0xff, 0xc0, 
	0x00, 0x00, 0xfd, 0xc0, 0x00, 0x00, 0xff, 0xc0, 0x00, 0x00, 
	0xff, 0xc0, 0x00, 0x00, 0xff, 0x40, 0x00, 0x00, 0xff, 0xc0, 
	0x00, 0x00, 0xff, 0xc0, 0x00, 0x00, 0xff, 0xc0, 0x00, 0x00, 
	0xff, 0xc0, 0x00, 0x00, 0x3f, 0x80, 0x00, 0x00, 0x24, 0x00, 
	0x00, 0x00, 0x00, 0x00, 0x00, 0x00, 0x00, 0x00, 0x00, 0x00, 
	0x00, 0x00, 0x00, 0x00, 0x11, 0x40, 0x00, 0x00, 0xdd, 0xc0, 
	0x00, 0x00, 0xdf, 0xc0, 0x00, 0x00, 0xff, 0xc0, 0x00, 0x00, 
	0xff, 0xc0, 0x00, 0x00, 0xff, 0xc0, 0x00, 0x00, 0xff, 0xc0, 
	0x00, 0x00, 0xff, 0xc0, 0x00, 0x00, 0xfe, 0x80, 0x00, 0x00, 
	0xff, 0xc0, 0x00, 0x00, 0xff, 0xc0, 0x00, 0x00, 0xff, 0xc0, 
	0x00, 0x00, 0xff, 0xc0, 0x00, 0x00, 0xff, 0xc0, 0x00, 0x00, 
	0xff, 0xc0, 0x00, 0x00, 0xff, 0xc0, 0x00, 0x00, 0xff, 0xc0, 
	0x00, 0x00, 0xff, 0x80, 0x00, 0x00, 0xff, 0xc0, 0x00, 0x00, 
	0xff, 0xc0, 0x00, 0x00, 0xff, 0x40, 0x00, 0x00, 0xff, 0xc0, 
	0x00, 0x00, 0xff, 0xc0, 0x00, 0x00, 0x35, 0x80, 0x00, 0x00, 
	0x40, 0x00, 0x00, 0x00, 0x00, 0x00, 0x00, 0x00, 0x00, 0x00, 
	0x00, 0x00, 0x00, 0x00, 0x00, 0x00, 0x11, 0x00, 0x00, 0x00, 
	0x75, 0xc0, 0x00, 0x00, 0xfd, 0x80, 0x00, 0x00, 0xff, 0xc0, 
	0x00, 0x00, 0xff, 0xc0, 0x00, 0x00, 0xfb, 0xc0, 0x00, 0x00, 
	0xff, 0xc0, 0x00, 0x00, 0xff, 0xc0, 0x00, 0x00, 0xff, 0xc0, 
	0x00, 0x00, 0xff, 0xc0, 0x00, 0x00, 0xff, 0xc0, 0x00, 0x00, 
	0xff, 0xc0, 0x00, 0x00, 0xdf, 0xc0, 0x00, 0x00, 0xff, 0xc0, 
	0x00, 0x00, 0xff, 0xc0, 0x00, 0x00, 0xff, 0xc0, 0x00, 0x00, 
	0xff, 0xc0, 0x00, 0x00, 0xbf, 0xc0, 0x00, 0x00, 0xff, 0xc0, 
	0x00, 0x00, 0xff, 0xc0, 0x00, 0x00, 0xdf, 0xc0, 0x00, 0x00, 
	0xd7, 0xc0, 0x00, 0x00, 0x3d, 0x80, 0x00, 0x00, 0x21, 0xc0, 
	0x00, 0x00, 0x20, 0x00, 0x00, 0x00, 0x00, 0x00, 0x00, 0x00, 
	0x00, 0x00, 0x00, 0x00, 0x00, 0x00, 0x00, 0x00, 0x00, 0x00, 
	0x00, 0x00, 0x25, 0x00, 0x00, 0x00, 0x71, 0xc0, 0x00, 0x00, 
	0xfd, 0xc0, 0x00, 0x00, 0xff, 0xc0, 0x00, 0x00, 0xff, 0xc0, 
	0x00, 0x00, 0xff, 0xc0, 0x00, 0x00, 0xff, 0xc0, 0x00, 0x00, 
	0xff, 0xc0, 0x00, 0x00, 0xff, 0xc0, 0x00, 0x00, 0xff, 0xc0, 
	0x00, 0x00, 0xff, 0xc0, 0x00, 0x00, 0xff, 0xc0, 0x00, 0x00, 
	0xff, 0xc0, 0x00, 0x00, 0xff, 0xc0, 0x00, 0x00, 0xff, 0xc0, 
	0x00, 0x00, 0xff, 0xc0, 0x00, 0x00, 0xeb, 0xc0, 0x00, 0x00, 
	0xff, 0x40, 0x00, 0x00, 0xbf, 0xc0, 0x00, 0x00, 0xbd, 0xc0, 
	0x00, 0x00, 0x2d, 0xc0, 0x00, 0x00, 0x0c, 0x00, 0x00, 0x00, 
	0x20, 0x00, 0x00, 0x00, 0x20, 0x00, 0x00, 0x00, 0x00, 0x00, 
	0x00, 0x00, 0x00, 0x00, 0x00, 0x00, 0x00, 0x00, 0x00, 0x00, 
	0x00, 0x00, 0x00, 0x00, 0x00, 0x00, 0x00, 0x00, 0x01, 0xc0, 
	0x00, 0x00, 0x15, 0xc0, 0x00, 0x00, 0xbd, 0xc0, 0x00, 0x00, 
	0xfd, 0xc0, 0x00, 0x00, 0xff, 0xc0, 0x00, 0x00, 0xff, 0xc0, 
	0x00, 0x00, 0xef, 0xc0, 0x00, 0x00, 0xff, 0xc0, 0x00, 0x00, 
	0xff, 0xc0, 0x00, 0x00, 0xff, 0xc0, 0x00, 0x00, 0xff, 0xc0, 
	0x00, 0x00, 0xfb, 0xc0, 0x00, 0x00, 0xef, 0xc0, 0x00, 0x00, 
	0xef, 0xc0, 0x00, 0x00, 0xef, 0xc0, 0x00, 0x00, 0xff, 0xc0, 
	0x00, 0x00, 0xb9, 0xc0, 0x00, 0x00, 0xbd, 0xc0, 0x00, 0x00, 
	0x8d, 0x40, 0x00, 0x00, 0x00, 0x00, 0x00, 0x00, 0x00, 0x00, 
	0x00, 0x00, 0x00, 0x00, 0x00, 0x00, 0x00, 0x00, 0x00, 0x00, 
	0x00, 0x00, 0x00, 0x00, 0x00, 0x00, 0x00, 0x00, 0x00, 0x00, 
	0x00, 0x00, 0x00, 0x00, 0x00, 0x00, 0x00, 0x00, 0x00, 0x00, 
	0x00, 0x00, 0x00, 0x00, 0x00, 0x00, 0x00, 0x00, 0x00, 0x00, 
	0x00, 0x00, 0x08, 0x40, 0x00, 0x00, 0x09, 0x40, 0x00, 0x00, 
	0x09, 0x00, 0x00, 0x00, 0x09, 0x80, 0x00, 0x00, 0x09, 0x00, 
	0x00, 0x00, 0x09, 0x80, 0x00, 0x00, 0x89, 0xc0, 0x00, 0x00, 
	0x9d, 0x80, 0x00, 0x00, 0x8d, 0xc0, 0x00, 0x00, 0x9d, 0x40, 
	0x00, 0x00, 0x9d, 0x40, 0x00, 0x00, 0x0d, 0x40, 0x00, 0x00, 
	0x09, 0x40, 0x00, 0x00, 0x01, 0x40, 0x00, 0x00, 0x00, 0x40, 
	0x00, 0x00, 0x81, 0x40, 0x00, 0x00, 0x00, 0x00, 0x00, 0x00, 
	0x00, 0x00, 0x00, 0x00, 0x00, 0x00, 0x00, 0x00, 0x00, 0x00, 
	0x00, 0x00, 0x00, 0x00, 0x00, 0x00, 0x00, 0x00, 0x00, 0x00, 
	0x00, 0x00, 0x00, 0x00, 0x00, 0x00, 0x00, 0x00, 0x00, 0x00, 
	0x00, 0x00, 0x00, 0x00, 0x00, 0x00, 0x00, 0x00, 0x00, 0x00, 
	0x00, 0x00, 0x00, 0x00, 0x00, 0x00, 0x00, 0x00, 0x00, 0x00, 
	0x00, 0x00, 0x00, 0x00, 0x00, 0x00, 0x00, 0x00, 0x00, 0x00, 
	0x00, 0x00, 0x00, 0x00, 0x00, 0x00, 0x00, 0x00, 0x00, 0x00, 
	0x00, 0x00, 0x00, 0x00, 0x00, 0x00, 0x00, 0x00, 0x00, 0x00, 
	0x7c, 0x7a, 0x7c, 0x78, 0x7e, 0x79, 0x7e, 0x7a, 0x7d, 0x78, 
	0x7f, 0x7c, 0x7a, 0x77, 0x81, 0x7c, 0x7a, 0x74, 0x84, 0x7a, 
	0x7a, 0x7c, 0x7a, 0x77, 0x80, 0x7c, 0x79, 0x7d, 0x7d, 0x7c, 
	0x78, 0x7d, 0x7c, 0x7e, 0x77, 0x7d, 0x7a, 0x79, 0x7d, 0x7a, 
	0x7a, 0x7d, 0x7a, 0x7a, 0x7d, 0x7a, 0x7c, 0x7a, 0x7c, 0x7a, 
	0x7c, 0x7a, 0x7d, 0x76, 0x81, 0x7a, 0x7a, 0x75, 0x84, 0x7a, 
	0x79, 0x7d, 0x7a, 0x75, 0x7a, 0x86, 0x7a, 0x7a, 0x79, 0x7d, 
	0x7a, 0x6f, 0x7a, 0x8e, 0x7a, 0x7a, 0x7a, 0x79, 0x79, 0x7f, 
	0x7c, 0x6d, 0x78, 0x91, 0x7a, 0x79, 0x7a, 0x78, 0x7d, 0x7c, 
	0x68, 0x78, 0x98, 0x79, 0x79, 0x79, 0x77, 0x7e, 0x7c, 0x6a, 
	0x77, 0x98, 0x7a, 0x78, 0x78, 0x75, 0x80, 0x7e, 0x6d, 0x76, 
	0x93, 0x7a, 0x78, 0x78, 0x75, 0x84, 0x81, 0x7a, 0x6c, 0x77, 
	0x8f, 0x79, 0x77, 0x78, 0x76, 0x80, 0x80, 0x7a, 0x6c, 0x7a, 
	0x90, 0x7a, 0x77, 0x78, 0x76, 0x7c, 0x7a, 0x73, 0x7c, 0x8d, 
	0x7a, 0x78, 0x79, 0x77, 0x78, 0x79, 0x76, 0x7c, 0x8c, 0x7a, 
	0x79, 0x78, 0x75, 0x7a, 0x78, 0x8d, 0x79, 0x7a, 0x79, 0x7a, 
	0x77, 0x7a, 0x79, 0x79, 0x8a, 0x7a, 0x7a, 0x7a, 0x7a, 0x78, 
	0x7a, 0x7a, 0x79, 0x86, 0x7a, 0x7a, 0x78, 0x79, 0x7a, 0x83, 
	0x7a, 0x7a, 0x7a, 0x7a, 0x7f, 0x7c, 0x7c, 0x7a, 0x7c, 0x79, 
	0x7d, 0x7a, 0x7c, 0x79, 0x7d, 0x79, 0x7a, 0x7f, 0x78, 0x7a, 
	0x7d, 0x7f, 0x76, 0x79, 0x83, 0x7a, 0x7a, 0x79, 0x77, 0x81, 
	0x80, 0x71, 0x78, 0x87, 0x79, 0x79, 0x7a, 0x77, 0x75, 0x8d, 
	0x7e, 0x6c, 0x76, 0x8d, 0x78, 0x78, 0x79, 0x76, 0x71, 0x92, 
	0x82, 0x67, 0x76, 0x92, 0x77, 0x75, 0x78, 0x76, 0x6d, 0x98, 
	0x8d, 0x60, 0x73, 0x95, 0x75, 0x72, 0x76, 0x74, 0x72, 0x9d, 
	0x93, 0x58, 0x73, 0x94, 0x75, 0x70, 0x75, 0x77, 0x76, 0xa0, 
	0x93, 0x54, 0x71, 0x97, 0x75, 0x6d, 0x73, 0x74, 0x77, 0x98, 
	0x9c, 0x56, 0x74, 0x98, 0x75, 0x69, 0x70, 0x72, 0x7d, 0x90, 
	0x9a, 0x57, 0x7a, 0x98, 0x75, 0x68, 0x6f, 0x71, 0x7d, 0x8f, 
	0x95, 0x5d, 0x96, 0x75, 0x68, 0x70, 0x6f, 0x75, 0x82, 0x92, 
	0x66, 0x82, 0x9a, 0x76, 0x6c, 0x72, 0x6c, 0x71, 0x70, 0x8e, 
	0x6d, 0x89, 0x9e, 0x77, 0x72, 0x75, 0x6b, 0x72, 0x6b, 0x89, 
	0x75, 0x87, 0xa1, 0x79, 0x71, 0x77, 0x6f, 0x73, 0x6a, 0x85, 
	0x7a, 0x86, 0x99, 0x79, 0x75, 0x77, 0x71, 0x75, 0x6d, 0x79, 
	0x84, 0x96, 0x7a, 0x79, 0x79, 0x74, 0x77, 0x70, 0x76, 0x7c, 
	0x80, 0x92, 0x7a, 0x77, 0x78, 0x73, 0x78, 0x7c, 0x79, 0x8d, 
	0x7c, 0x79, 0x79, 0x79, 0x7a, 0x79, 0x85, 0x7c, 0x7c, 0x7c, 
	0x7a, 0x7a, 0x7d, 0x7c, 0x7a, 0x7c, 0x78, 0x7c, 0x7d, 0x84, 
	0x7c, 0x76, 0x7a, 0x7a, 0x77, 0x81, 0x88, 0x7a, 0x73, 0x7a, 
	0x78, 0x7a, 0x77, 0x77, 0x83, 0x90, 0x77, 0x70, 0x7e, 0x78, 
	0x77, 0x79, 0x77, 0x73, 0x8e, 0x9a, 0x70, 0x64, 0x85, 0x75, 
	0x77, 0x77, 0x77, 0x70, 0xa1, 0x9d, 0x67, 0x62, 0x84, 0x72, 
	0x77, 0x73, 0x75, 0x6f, 0xa7, 0xa6, 0x5b, 0x69, 0x86, 0x6d, 
	0x76, 0x71, 0x76, 0x71, 0xac, 0xae, 0x57, 0x6b, 0x7d, 0x69, 
	0x7a, 0x6c, 0x71, 0x81, 0xae, 0xad, 0x54, 0x65, 0x78, 0x66, 
	0x84, 0x66, 0x78, 0x8e, 0xa1, 0xae, 0x56, 0x60, 0x79, 0x63, 
	0x87, 0x62, 0x79, 0x90, 0x9c, 0xa9, 0x51, 0x6d, 0x79, 0x61, 
	0x90, 0x59, 0x80, 0x8b, 0x90, 0xa4, 0x52, 0x83, 0x75, 0x61, 
	0x92, 0x53, 0x77, 0x85, 0x8f, 0x9c, 0x5e, 0x8a, 0x87, 0x62, 
	0x85, 0x52, 0x76, 0x7d, 0x88, 0x8c, 0x66, 0x90, 0x96, 0x65, 
	0x5d, 0x6f, 0x7a, 0x7a, 0x8d, 0x6d, 0x92, 0x99, 0x6a, 0x78, 
	0x64, 0x6e, 0x87, 0x6d, 0x80, 0x7a, 0x87, 0x9f, 0x6f, 0x76, 
	0x68, 0x6f, 0x8e, 0x69, 0x74, 0x82, 0xa2, 0x72, 0x78, 0x6d, 
	0x71, 0x8c, 0x64, 0x6a, 0x84, 0x90, 0x9f, 0x76, 0x6d, 0x70, 
	0x72, 0x86, 0x64, 0x6a, 0x85, 0x90, 0x9c, 0x77, 0x6c, 0x74, 
	0x71, 0x7e, 0x6b, 0x6a, 0x85, 0x90, 0x94, 0x79, 0x70, 0x78, 
	0x74, 0x76, 0x73, 0x77, 0x81, 0x88, 0x84, 0x7a, 0x79, 0x7a, 
	0x79, 0x78, 0x7a, 0x7c, 0x7f, 0x7d, 0x7c, 0x7c, 0x7e, 0x7a, 
	0x7a, 0x7a, 0x79, 0x84, 0x7c, 0x75, 0x7c, 0x79, 0x7a, 0x76, 
	0x7c, 0x7e, 0x91, 0x7f, 0x70, 0x75, 0x7c, 0x75, 0x78, 0x75, 
	0x78, 0x84, 0x9b, 0x7f, 0x6b, 0x76, 0x7c, 0x72, 0x74, 0x74, 
	0x6f, 0x8f, 0x9e, 0x7e, 0x6b, 0x78, 0x73, 0x70, 0x72, 0x65, 
	0xa1, 0x99, 0x78, 0x6c, 0x80, 0x79, 0x74, 0x6c, 0x72, 0x62, 
	0xa5, 0x9b, 0x73, 0x79, 0x7c, 0x73, 0x77, 0x67, 0x79, 0x69, 
	0xa6, 0x9d, 0x68, 0x80, 0x7c, 0x68, 0x73, 0x6a, 0x7c, 0x6f, 
	0xa5, 0x96, 0x65, 0x7f, 0x66, 0x5e, 0x89, 0x78, 0x80, 0x7c, 
	0xa2, 0x8b, 0x61, 0x77, 0x67, 0x56, 0x97, 0x7a, 0x92, 0x88, 
	0xa0, 0x8a, 0x5a, 0x70, 0x61, 0x4c, 0x98, 0x99, 0x8f, 0x9d, 
	0x85, 0x69, 0x71, 0x6a, 0x44, 0x94, 0x68, 0x9a, 0x8e, 0xa3, 
	0x8d, 0x6c, 0x73, 0x68, 0x45, 0x92, 0x5a, 0x97, 0x75, 0xa9, 
	0x93, 0x77, 0x81, 0x6c, 0x49, 0x96, 0x43, 0x9c, 0x6d, 0xa0, 
	0x7d, 0x78, 0x8d, 0x49, 0x9c, 0x43, 0x92, 0x7a, 0x91, 0x7a, 
	0x80, 0x8e, 0x8d, 0x4e, 0x83, 0x4c, 0x80, 0x85, 0x7f, 0x79, 
	0x89, 0x88, 0x95, 0x54, 0x86, 0x52, 0x77, 0x98, 0x72, 0x6c, 
	0x85, 0x92, 0x91, 0x5b, 0x86, 0x5a, 0x9e, 0x6f, 0x61, 0x8c, 
	0x94, 0x8d, 0x65, 0x76, 0x5e, 0x77, 0x98, 0x68, 0x5d, 0x98, 
	0x9f, 0x8b, 0x6c, 0x6c, 0x61, 0x6c, 0x8a, 0x65, 0x5f, 0x9c, 
	0xa2, 0x8c, 0x72, 0x6d, 0x6a, 0x6c, 0x7d, 0x6e, 0x71, 0x8b, 
	0x98, 0x83, 0x78, 0x75, 0x73, 0x75, 0x77, 0x78, 0x79, 0x7d, 
	0x8a, 0x7a, 0x7a, 0x7d, 0x78, 0x79, 0x7a, 0x7a, 0x7a, 0x80, 
	0x7a, 0x7c, 0x7c, 0x7c, 0x81, 0x7a, 0x77, 0x7a, 0x7f, 0x79, 
	0x7a, 0x79, 0x7e, 0x8d, 0x7d, 0x6e, 0x7c, 0x77, 0x77, 0x76, 
	0x78, 0x83, 0x9b, 0x84, 0x6b, 0x75, 0x7e, 0x73, 0x6e, 0x73, 
	0x72, 0x8c, 0x9f, 0x86, 0x6b, 0x71, 0x85, 0x6f, 0x67, 0x71, 
	0x68, 0x97, 0x98, 0x86, 0x73, 0x76, 0x88, 0x73, 0x5d, 0x6d, 
	0x5b, 0x99, 0x96, 0x7e, 0x7d, 0x78, 0x8f, 0x7a, 0x5c, 0x6a, 
	0x54, 0x9c, 0x9d, 0x82, 0x71, 0x8c, 0x79, 0x65, 0x79, 0x5e, 
	0x96, 0x99, 0x6d, 0x85, 0x66, 0x8c, 0x72, 0x72, 0x81, 0x6b, 
	0x84, 0x89, 0x5e, 0x84, 0x62, 0x88, 0x80, 0x88, 0x84, 0x6d, 
	0x83, 0x8b, 0x5c, 0x7d, 0x66, 0x75, 0x8a, 0x92, 0x92, 0x70, 
	0x88, 0x9d, 0x51, 0x79, 0x5c, 0x60, 0x7c, 0xa5, 0x92, 0x6f, 
	0x8c, 0x97, 0x4c, 0x7f, 0x5e, 0x5e, 0x80, 0xa4, 0x90, 0x61, 
	0x8e, 0x8f, 0x4d, 0x73, 0x64, 0x66, 0x9d, 0x99, 0x96, 0x59, 
	0x90, 0x90, 0x52, 0x77, 0x61, 0x6a, 0x95, 0x97, 0xa0, 0x59, 
	0x86, 0x8c, 0x5f, 0x81, 0x67, 0x68, 0x8b, 0x8b, 0x9f, 0x6d, 
	0x7e, 0x91, 0x61, 0x87, 0x69, 0x62, 0x7a, 0x87, 0x90, 0x78, 
	0x78, 0x77, 0x72, 0x8f, 0x6e, 0x61, 0x91, 0x77, 0x8b, 0x89, 
	0x6c, 0x76, 0x8e, 0x71, 0x64, 0x90, 0x6b, 0x93, 0x8c, 0x6c, 
	0x70, 0x89, 0x89, 0x71, 0x6c, 0x83, 0x62, 0x8e, 0x8a, 0x67, 
	0x5d, 0xa5, 0x9d, 0x71, 0x6b, 0x7d, 0x57, 0x74, 0x83, 0x5d, 
	0x5b, 0xab, 0xb2, 0x75, 0x6c, 0x86, 0x5b, 0x64, 0x78, 0x6a, 
	0x6d, 0x8f, 0xba, 0x77, 0x73, 0x80, 0x68, 0x6d, 0x76, 0x76, 
	0x77, 0x7e, 0x9c, 0x78, 0x77, 0x80, 0x74, 0x75, 0x7a, 0x7a, 
	0x7a, 0x7c, 0x88, 0x79, 0x7a, 0x7a, 0x7a, 0x7a, 0x7d, 0x7c, 
	0x7a, 0x7d, 0x7a, 0x7a, 0x7d, 0x83, 0x7a, 0x74, 0x79, 0x84, 
	0x79, 0x77, 0x77, 0x79, 0x85, 0x98, 0x80, 0x62, 0x79, 0x81, 
	0x77, 0x6e, 0x75, 0x73, 0x88, 0xa7, 0x87, 0x5f, 0x73, 0x87, 
	0x75, 0x61, 0x72, 0x6c, 0x97, 0x9c, 0x85, 0x68, 0x6c, 0x92, 
	0x79, 0x5a, 0x6d, 0x63, 0x91, 0x89, 0x85, 0x7e, 0x74, 0x97, 
	0x84, 0x53, 0x69, 0x52, 0x91, 0x85, 0x79, 0x8b, 0x74, 0x9c, 
	0x88, 0x60, 0x75, 0x50, 0x88, 0x89, 0x71, 0x89, 0x6b, 0xa4, 
	0x7d, 0x72, 0x7c, 0x54, 0x81, 0x83, 0x62, 0x91, 0x63, 0xa8, 
	0x7e, 0x7e, 0x85, 0x5b, 0x83, 0x80, 0x56, 0x93, 0x62, 0xa5, 
	0x70, 0x8d, 0x83, 0x67, 0x7d, 0x8c, 0x43, 0x85, 0x60, 0x97, 
	0x75, 0xa7, 0x87, 0x66, 0x8a, 0x94, 0x46, 0x75, 0x59, 0x86, 
	0x72, 0xb6, 0x88, 0x60, 0x84, 0x9d, 0x35, 0x81, 0x5e, 0x7c, 
	0x66, 0xce, 0x8a, 0x53, 0x9f, 0x2c, 0x6f, 0x60, 0x84, 0x83, 
	0xd6, 0x92, 0x54, 0x77, 0x86, 0x33, 0x7d, 0x53, 0x94, 0x86, 
	0xce, 0xa0, 0x5b, 0x65, 0x8c, 0x4a, 0x87, 0x56, 0x9b, 0x76, 
	0xab, 0x9f, 0x63, 0x6d, 0x88, 0x56, 0x87, 0x4f, 0x94, 0x86, 
	0x92, 0x92, 0x75, 0x73, 0x88, 0x66, 0x8c, 0x4e, 0x88, 0x7f, 
	0x87, 0x85, 0x7f, 0x71, 0x86, 0x68, 0x87, 0x55, 0x87, 0x86, 
	0x82, 0x8b, 0x73, 0x79, 0x81, 0x8a, 0x58, 0x7d, 0x8c, 0x70, 
	0x94, 0x78, 0x76, 0x66, 0x9c, 0x94, 0x5a, 0x7a, 0x8c, 0x57, 
	0x83, 0x6f, 0x5d, 0x5a, 0xa0, 0xbd, 0x62, 0x74, 0x9d, 0x55, 
	0x6b, 0x68, 0x65, 0x67, 0x87, 0xd1, 0x73, 0x70, 0x95, 0x61, 
	0x6a, 0x71, 0x75, 0x76, 0x7a, 0xb8, 0x74, 0x74, 0x7e, 0x70, 
	0x75, 0x7a, 0x7a, 0x7c, 0x8a, 0x79, 0x7a, 0x79, 0x78, 0x7a, 
	0x7d, 0x7c, 0x7a, 0x7c, 0x7a, 0x81, 0x7a, 0x78, 0x7a, 0x7d, 
	0x83, 0x79, 0x72, 0x78, 0x8d, 0x78, 0x70, 0x74, 0x78, 0x86, 
	0x9c, 0x7d, 0x5a, 0x78, 0x90, 0x7a, 0x67, 0x71, 0x73, 0x8b, 
	0xa0, 0x85, 0x5a, 0x70, 0x94, 0x7f, 0x5e, 0x70, 0x6a, 0x8c, 
	0x92, 0x80, 0x65, 0x69, 0x95, 0x8f, 0x63, 0x6e, 0x63, 0x8a, 
	0x86, 0x7f, 0x75, 0x6f, 0x9e, 0x93, 0x5a, 0x70, 0x54, 0x88, 
	0x80, 0x6f, 0x8a, 0x70, 0x9a, 0x8c, 0x74, 0x7c, 0x4e, 0x8a, 
	0x80, 0x75, 0x85, 0x6b, 0x95, 0x8d, 0x72, 0x7f, 0x51, 0x9c, 
	0x82, 0x63, 0x8e, 0x60, 0x95, 0x84, 0x77, 0x7e, 0x5a, 0x91, 
	0x7a, 0x62, 0x91, 0x64, 0xa2, 0x7d, 0x75, 0x85, 0x69, 0x88, 
	0x7d, 0x55, 0x82, 0x5b, 0xa2, 0x93, 0x73, 0x82, 0x74, 0x86, 
	0x81, 0x55, 0x73, 0x57, 0x95, 0x8d, 0x90, 0x8d, 0x74, 0x90, 
	0x98, 0x33, 0x6b, 0x57, 0x9b, 0x68, 0xaf, 0x96, 0x7c, 0x8b, 
	0x9c, 0x2f, 0x5c, 0x51, 0xa3, 0x6e, 0xab, 0xa6, 0x6a, 0x7e, 
	0x8d, 0x38, 0x68, 0x47, 0xa9, 0x81, 0xa3, 0xa6, 0x77, 0x76, 
	0x8f, 0x58, 0x73, 0x3d, 0xa5, 0x79, 0x87, 0x9d, 0x6d, 0x70, 
	0x98, 0x6d, 0x73, 0x2c, 0xa3, 0x8e, 0x81, 0x91, 0x6d, 0x7c, 
	0x94, 0x71, 0x7f, 0x33, 0x95, 0x91, 0x76, 0x8b, 0x67, 0x75, 
	0x97, 0x6d, 0x8d, 0x43, 0x95, 0x89, 0x76, 0x8a, 0x63, 0x72, 
	0x8b, 0x7a, 0x93, 0x4d, 0x80, 0x8f, 0x7c, 0x9a, 0x5e, 0x71, 
	0x7c, 0x84, 0x98, 0x4d, 0x81, 0x9b, 0x64, 0x9a, 0x59, 0x66, 
	0x56, 0x87, 0xce, 0x55, 0x78, 0xa3, 0x59, 0x77, 0x60, 0x60, 
	0x61, 0x7a, 0xeb, 0x66, 0x6d, 0x9b, 0x63, 0x6a, 0x6f, 0x72, 
	0x74, 0x77, 0xc6, 0x70, 0x72, 0x80, 0x70, 0x76, 0x7a, 0x7a, 
	0x7a, 0x78, 0x8d, 0x77, 0x79, 0x7e, 0x78, 0x7c, 0x7d, 0x7a, 
	0x7c, 0x7c, 0x7a, 0x7a, 0x83, 0x79, 0x76, 0x7a, 0x7f, 0x83, 
	0x74, 0x72, 0x78, 0x94, 0x77, 0x6f, 0x74, 0x78, 0x83, 0x97, 
	0x74, 0x61, 0x77, 0x9e, 0x7e, 0x61, 0x70, 0x70, 0x91, 0x8e, 
	0x7a, 0x60, 0x6d, 0x99, 0x88, 0x68, 0x6e, 0x6b, 0x84, 0x87, 
	0x74, 0x6e, 0x6b, 0x8d, 0x96, 0x7a, 0x6f, 0x67, 0x7c, 0x7d, 
	0x76, 0x80, 0x75, 0x89, 0x98, 0x73, 0x74, 0x5c, 0x75, 0x72, 
	0x76, 0x93, 0x74, 0x86, 0x97, 0x7f, 0x7a, 0x54, 0x89, 0x68, 
	0x78, 0x90, 0x68, 0x86, 0x9b, 0x7f, 0x80, 0x5a, 0x93, 0x58, 
	0x6a, 0x9d, 0x64, 0x83, 0x96, 0x85, 0x76, 0x65, 0x89, 0x41, 
	0x6c, 0xad, 0x67, 0x90, 0x97, 0x84, 0x7f, 0x6d, 0x83, 0x4d, 
	0x75, 0x98, 0x62, 0x9a, 0x8b, 0x80, 0x8d, 0x82, 0x85, 0x6c, 
	0x5f, 0x7a, 0x5a, 0x9a, 0x7d, 0x84, 0x86, 0x9d, 0x90, 0x9a, 
	0x27, 0x5d, 0x61, 0xaa, 0x5a, 0x99, 0x80, 0xae, 0x94, 0xaa, 
	0x38, 0x48, 0x4e, 0xb4, 0x48, 0x99, 0x93, 0x8e, 0x8d, 0xa0, 
	0x65, 0x45, 0x3a, 0xbc, 0x5d, 0x83, 0xa5, 0x79, 0x81, 0x9a, 
	0x75, 0x52, 0x26, 0xb8, 0x72, 0x7f, 0xa7, 0x68, 0x81, 0x91, 
	0x7a, 0x5f, 0x26, 0xa6, 0x86, 0x83, 0x9c, 0x5c, 0x7f, 0x9a, 
	0x74, 0x6e, 0x2e, 0xa4, 0x90, 0x79, 0x8f, 0x55, 0x74, 0xa7, 
	0x73, 0x80, 0x42, 0x98, 0x8c, 0x76, 0x86, 0x50, 0x70, 0x97, 
	0x78, 0x99, 0x4e, 0x93, 0x94, 0x6c, 0x94, 0x4f, 0x73, 0x83, 
	0x75, 0xad, 0x4a, 0x86, 0x9e, 0x66, 0xa8, 0x54, 0x66, 0x62, 
	0x6d, 0xd6, 0x58, 0x73, 0xa0, 0x5c, 0x86, 0x62, 0x62, 0x64, 
	0x61, 0xff, 0x62, 0x6e, 0x8a, 0x65, 0x6b, 0x71, 0x73, 0x76, 
	0x6a, 0xd6, 0x6a, 0x75, 0x7a, 0x70, 0x76, 0x7a, 0x7a, 0x7a, 
	0x76, 0x8f, 0x75, 0x7a, 0x7f, 0x78, 0x7c, 0x7c, 0x7a, 0x7d, 
	0x7a, 0x7c, 0x79, 0x7a, 0x7a, 0x86, 0x7a, 0x75, 0x79, 0x7a, 
	0x7f, 0x87, 0x73, 0x74, 0x78, 0x92, 0x76, 0x70, 0x74, 0x79, 
	0x78, 0x88, 0x74, 0x6f, 0x76, 0x9e, 0x84, 0x68, 0x70, 0x71, 
	0x83, 0x78, 0x72, 0x6e, 0x6e, 0x9d, 0x8c, 0x70, 0x69, 0x7f, 
	0x6a, 0x6f, 0x7e, 0x71, 0x89, 0x98, 0x8c, 0x72, 0x67, 0x66, 
	0x5c, 0x78, 0x94, 0x7d, 0x86, 0x9e, 0x87, 0x74, 0x63, 0x61, 
	0x48, 0x83, 0xa2, 0x7e, 0x77, 0x9d, 0x97, 0x7a, 0x5c, 0x61, 
	0x38, 0x91, 0xad, 0x6f, 0x7e, 0xa4, 0x91, 0x71, 0x64, 0x64, 
	0x2a, 0x83, 0xa7, 0x75, 0x88, 0xab, 0x9b, 0x6b, 0x5d, 0x27, 
	0x88, 0xa9, 0x72, 0x83, 0xa2, 0x9e, 0x7e, 0x73, 0x56, 0x3f, 
	0x94, 0xa6, 0x6a, 0x82, 0x98, 0x8a, 0x86, 0x97, 0x55, 0x57, 
	0x92, 0x72, 0x9a, 0x80, 0x6c, 0x75, 0xc6, 0x69, 0xa0, 0x1f, 
	0x7e, 0x5e, 0xab, 0x6a, 0x79, 0x64, 0xd1, 0x6e, 0xa1, 0x57, 
	0x65, 0x43, 0xc6, 0x53, 0x73, 0x6f, 0x9c, 0x7c, 0x9f, 0x80, 
	0x53, 0x39, 0xd4, 0x4f, 0x92, 0x77, 0x7f, 0x97, 0x88, 0x46, 
	0x37, 0xbb, 0x65, 0x8c, 0x9e, 0x61, 0x85, 0x99, 0x76, 0x4c, 
	0x38, 0xaf, 0x86, 0x84, 0x96, 0x58, 0x7e, 0xa5, 0x78, 0x56, 
	0x40, 0xa6, 0x8c, 0x7e, 0x95, 0x4f, 0x77, 0xaa, 0x67, 0x66, 
	0x51, 0xa3, 0x82, 0x86, 0x8b, 0x52, 0x75, 0x8c, 0x6c, 0x79, 
	0x5e, 0xa2, 0x90, 0x7d, 0x9c, 0x58, 0x70, 0x78, 0x68, 0x8a, 
	0x5f, 0x8f, 0xa0, 0x73, 0xaf, 0x5d, 0x6a, 0x69, 0x56, 0xb7, 
	0x69, 0x71, 0x9c, 0x6c, 0x90, 0x67, 0x6a, 0x6c, 0x5c, 0xe7, 
	0x67, 0x6f, 0x80, 0x68, 0x6d, 0x74, 0x76, 0x78, 0x69, 0xd2, 
	0x67, 0x76, 0x76, 0x72, 0x75, 0x7a, 0x76, 0x91, 0x75, 0x7a, 
	0x79, 0x7c, 0x7a, 0x7c, 0x7a, 0x7f, 0x79, 0x7a, 0x7c, 0x76, 
	0x7a, 0x8b, 0x7a, 0x72, 0x79, 0x7a, 0x79, 0x84, 0x75, 0x75, 
	0x77, 0x94, 0x79, 0x70, 0x6e, 0x7a, 0x70, 0x7d, 0x73, 0x76, 
	0x76, 0x9f, 0x81, 0x79, 0x6e, 0x76, 0x69, 0x64, 0x72, 0x76, 
	0x93, 0x93, 0x95, 0x79, 0x6d, 0x54, 0x4e, 0x79, 0x94, 0x79, 
	0x87, 0x9b, 0x9e, 0x7d, 0x69, 0x42, 0x3b, 0x83, 0x98, 0x89, 
	0x87, 0xa7, 0x9a, 0x78, 0x65, 0x39, 0x33, 0x99, 0x99, 0x85, 
	0xa6, 0xad, 0x74, 0x5c, 0x33, 0x35, 0xa3, 0x99, 0x86, 0x88, 
	0xad, 0xa0, 0x73, 0x5b, 0x28, 0x42, 0xa9, 0x97, 0x83, 0x91, 
	0x9f, 0xa4, 0x75, 0x59, 0x26, 0x51, 0xac, 0x9b, 0x80, 0x8c, 
	0x99, 0x9d, 0x77, 0x6d, 0x20, 0x6a, 0xa3, 0xac, 0x85, 0x79, 
	0x99, 0x78, 0x73, 0x9f, 0x20, 0x91, 0x43, 0xb3, 0x84, 0x83, 
	0xa5, 0x69, 0x4f, 0xe2, 0x34, 0x9d, 0x2b, 0x8b, 0x57, 0x9e, 
	0xa9, 0x78, 0x31, 0xdd, 0x47, 0x9c, 0x7c, 0x6d, 0x39, 0xbe, 
	0x76, 0x87, 0x38, 0x98, 0x5f, 0x89, 0xaf, 0x5e, 0x4b, 0xc7, 
	0x5e, 0x98, 0x66, 0x71, 0x61, 0x94, 0x97, 0x54, 0x4e, 0xb4, 
	0x69, 0xad, 0x69, 0x76, 0x95, 0x77, 0x52, 0x56, 0xb0, 0x72, 
	0x9f, 0x8f, 0x5e, 0x84, 0x9a, 0x73, 0x40, 0x5b, 0x98, 0x7c, 
	0xa1, 0x93, 0x5d, 0x79, 0x96, 0x63, 0x30, 0x68, 0x9b, 0x84, 
	0xb5, 0x96, 0x63, 0x75, 0x71, 0x67, 0x3b, 0x7d, 0x97, 0x96, 
	0xa3, 0xa4, 0x67, 0x6d, 0x6a, 0x62, 0x44, 0x84, 0x8c, 0xa8, 
	0x90, 0xaf, 0x6d, 0x6a, 0x69, 0x5c, 0x6b, 0x8c, 0x73, 0xa3, 
	0x76, 0x99, 0x72, 0x72, 0x70, 0x65, 0x92, 0x78, 0x72, 0x93, 
	0x6e, 0x74, 0x77, 0x7c, 0x7a, 0x71, 0xa3, 0x6d, 0x77, 0x81, 
	0x74, 0x77, 0x7a, 0x79, 0x87, 0x74, 0x7a, 0x7f, 0x79, 0x7a, 
	0x7f, 0x79, 0x7a, 0x77, 0x7a, 0x89, 0x73, 0x79, 0x76, 0x7a, 
	0x74, 0x78, 0x78, 0x95, 0x7c, 0x76, 0x6d, 0x6b, 0x73, 0x70, 
	0x7c, 0x74, 0x9e, 0x7e, 0x8c, 0x76, 0x77, 0x4b, 0x5e, 0x75, 
	0x84, 0x78, 0x93, 0x8e, 0xa5, 0x88, 0x73, 0x26, 0x49, 0x8c, 
	0x97, 0x89, 0x84, 0x90, 0xa3, 0x86, 0x6f, 0x1a, 0x3f, 0x9c, 
	0x95, 0x92, 0x8f, 0x95, 0x9a, 0x7e, 0x68, 0x2b, 0x43, 0xad, 
	0x8b, 0x8b, 0x8c, 0x8b, 0xa1, 0x7d, 0x5f, 0x2b, 0x5b, 0xab, 
	0x81, 0x8e, 0x8f, 0xa8, 0x82, 0x4c, 0x27, 0x73, 0xc2, 0x9c, 
	0x87, 0x6e, 0x76, 0x9f, 0x84, 0x42, 0x28, 0x71, 0xd0, 0xad, 
	0x97, 0x60, 0x79, 0x83, 0x85, 0x68, 0x28, 0x80, 0xc2, 0xb6, 
	0x99, 0x39, 0x97, 0x59, 0x65, 0xa1, 0x2e, 0x93, 0x69, 0xaf, 
	0x86, 0x2f, 0xbf, 0x2f, 0xf4, 0x38, 0xad, 0x4d, 0x81, 0x56, 
	0x5f, 0xa7, 0x9d, 0x16, 0xd2, 0x3c, 0x9a, 0x92, 0x65, 0x53, 
	0x9b, 0x88, 0xa4, 0x1e, 0x8e, 0x4e, 0x8f, 0xb7, 0x43, 0x6c, 
	0xb7, 0x7d, 0xad, 0x51, 0x79, 0x57, 0x8d, 0x96, 0x46, 0x68, 
	0xad, 0x77, 0xb8, 0x72, 0x66, 0x6c, 0x8b, 0x80, 0x4f, 0x65, 
	0xa1, 0x76, 0xb3, 0x7f, 0x5f, 0x88, 0x78, 0x7e, 0x45, 0x61, 
	0x86, 0x89, 0xbe, 0x7f, 0x66, 0x7d, 0x6a, 0x7a, 0x33, 0x72, 
	0x88, 0x9c, 0xbf, 0x91, 0x6d, 0x74, 0x54, 0x80, 0x21, 0x8e, 
	0x83, 0xa7, 0xaf, 0xb0, 0x70, 0x65, 0x5f, 0x76, 0x1a, 0xa3, 
	0x7f, 0xa3, 0x98, 0xb5, 0x75, 0x5e, 0x69, 0x6b, 0x2f, 0xac, 
	0x77, 0x9f, 0x7f, 0xa4, 0x77, 0x78, 0x73, 0x73, 0x4f, 0x90, 
	0x76, 0x91, 0x6e, 0x7a, 0x83, 0x79, 0x76, 0x81, 0x76, 0x79, 
	0x7a, 0x80, 0x7a, 0x7f, 0x75, 0x7c, 0x7c, 0x79, 0x7c, 0x7a, 
	0x7d, 0x7a, 0x7a, 0x79, 0x84, 0x76, 0x79, 0x75, 0x79, 0x76, 
	0x79, 0x8c, 0x7c, 0x73, 0x64, 0x6f, 0x77, 0x80, 0x73, 0x90, 
	0x79, 0x9c, 0x7d, 0x77, 0x3b, 0x61, 0x8a, 0x88, 0x7f, 0x89, 
	0xa9, 0x94, 0x74, 0x1f, 0x50, 0xa7, 0x86, 0x96, 0x7f, 0x7a, 
	0x9c, 0x96, 0x6f, 0x25, 0x48, 0xad, 0x92, 0x8e, 0x82, 0x75, 
	0x98, 0x8c, 0x6d, 0x3b, 0x57, 0xae, 0x88, 0x8c, 0x79, 0x6b, 
	0x9e, 0x8c, 0x5d, 0x46, 0x6d, 0xb0, 0x89, 0x8f, 0x69, 0x75, 
	0x8e, 0x90, 0x3a, 0x55, 0x66, 0xc6, 0xa5, 0x99, 0x5b, 0x66, 
	0x86, 0x8d, 0x30, 0x65, 0x6a, 0xdd, 0xa9, 0x9c, 0x30, 0x85, 
	0x6b, 0x7f, 0x5c, 0x64, 0x8a, 0xb6, 0xb2, 0x93, 0x04, 0xa2, 
	0x64, 0x45, 0xaa, 0x72, 0xa5, 0x72, 0xa0, 0x76, 0x02, 0xb5, 
	0x8a, 0x1f, 0xea, 0x6f, 0x9d, 0x6c, 0x7c, 0x61, 0x42, 0x8d, 
	0xa1, 0x10, 0xc3, 0x53, 0x7a, 0x97, 0x54, 0x7a, 0x7c, 0xa6, 
	0xa7, 0x1f, 0x89, 0x50, 0x8a, 0xaf, 0x3c, 0x82, 0x96, 0x8d, 
	0xbe, 0x4b, 0x73, 0x61, 0x8f, 0xab, 0x51, 0x6a, 0x92, 0x71, 
	0xb8, 0x6b, 0x57, 0x6a, 0x8f, 0x97, 0x5d, 0x62, 0x92, 0x7e, 
	0xae, 0x6c, 0x5c, 0x71, 0x6e, 0x91, 0x66, 0x71, 0x88, 0x82, 
	0xb7, 0x6c, 0x66, 0x71, 0x4f, 0x99, 0x5e, 0x79, 0x8e, 0x90, 
	0xae, 0x8b, 0x6d, 0x70, 0x54, 0x8f, 0x48, 0x97, 0x84, 0x80, 
	0xa0, 0xad, 0x71, 0x65, 0x5b, 0x84, 0x3f, 0xae, 0x7d, 0x80, 
	0x83, 0xb6, 0x73, 0x67, 0x69, 0x76, 0x3a, 0xbc, 0x7d, 0x81, 
	0x6b, 0xa2, 0x75, 0x83, 0x74, 0x71, 0x53, 0x9d, 0x7c, 0x7c, 
	0x68, 0x7e, 0x79, 0x8e, 0x7a, 0x74, 0x77, 0x7c, 0x7a, 0x73, 
	0x7a, 0x88, 0x7a, 0x74, 0x7a, 0x79, 0x7f, 0x7a, 0x7a, 0x7a, 
	0x7c, 0x7c, 0x7a, 0x80, 0x78, 0x77, 0x7c, 0x75, 0x79, 0x83, 
	0x7a, 0x7f, 0x74, 0x68, 0x76, 0x8a, 0x7d, 0x6e, 0x84, 0x73, 
	0x95, 0x8a, 0x76, 0x4a, 0x65, 0x9f, 0x7d, 0x7c, 0x82, 0x70, 
	0x96, 0x99, 0x72, 0x48, 0x55, 0xab, 0x77, 0x92, 0x76, 0x61, 
	0x9a, 0xa2, 0x6d, 0x58, 0x50, 0xb7, 0x7f, 0x8f, 0x72, 0x4f, 
	0x92, 0x99, 0x6a, 0x66, 0x59, 0xaf, 0x8b, 0x91, 0x63, 0x4f, 
	0x90, 0x9b, 0x56, 0x70, 0x63, 0xaa, 0x9b, 0x9b, 0x55, 0x57, 
	0x7f, 0x98, 0x33, 0x7c, 0x60, 0xb4, 0xa4, 0xa5, 0x41, 0x71, 
	0x79, 0x90, 0x32, 0x86, 0x63, 0xbd, 0x93, 0xae, 0x1b, 0x99, 
	0x73, 0x70, 0x6a, 0x85, 0x8e, 0xa3, 0x95, 0x91, 0x00, 0xa6, 
	0x73, 0x39, 0xb9, 0x99, 0x92, 0x70, 0x87, 0x72, 0x0f, 0xb5, 
	0x83, 0x18, 0xdf, 0x88, 0x89, 0x72, 0x6e, 0x78, 0x49, 0xa1, 
	0x84, 0x16, 0xb7, 0x6a, 0x95, 0x58, 0x88, 0x74, 0x9c, 0x98, 
	0x22, 0x7f, 0x6d, 0x78, 0xb8, 0x50, 0x88, 0x84, 0x7d, 0xb8, 
	0x56, 0x50, 0x66, 0x8a, 0xc0, 0x55, 0x61, 0x9a, 0x77, 0xb1, 
	0x6b, 0x46, 0x74, 0x84, 0xa4, 0x64, 0x5f, 0xb4, 0x70, 0x9b, 
	0x6a, 0x53, 0x6e, 0x72, 0xa7, 0x64, 0x71, 0xb6, 0x6c, 0x92, 
	0x76, 0x61, 0x73, 0x65, 0x9b, 0x70, 0x7f, 0xa2, 0x61, 0x91, 
	0x92, 0x6b, 0x68, 0x70, 0x8a, 0x68, 0x94, 0x97, 0x5e, 0x7f, 
	0x9f, 0x70, 0x67, 0x68, 0x83, 0x65, 0xad, 0x97, 0x5d, 0x67, 
	0xaf, 0x73, 0x72, 0x6d, 0x5d, 0xaf, 0x8b, 0x64, 0x5a, 0xa1, 
	0x76, 0x89, 0x74, 0x72, 0x64, 0x94, 0x7f, 0x6d, 0x63, 0x7e, 
	0x79, 0x94, 0x79, 0x77, 0x73, 0x78, 0x7c, 0x78, 0x74, 0x8a, 
	0x7a, 0x78, 0x7a, 0x73, 0x7a, 0x7a, 0x7a, 0x7c, 0x7a, 0x7d, 
	0x7c, 0x7c, 0x79, 0x77, 0x7d, 0x7d, 0x7e, 0x7a, 0x77, 0x7e, 
	0x7a, 0x7d, 0x7a, 0x7c, 0x80, 0x87, 0x76, 0x68, 0x7d, 0x73, 
	0x88, 0x96, 0x74, 0x7a, 0x75, 0x95, 0x6a, 0x76, 0x73, 0x65, 
	0x89, 0x97, 0x6c, 0x7c, 0x66, 0xa2, 0x69, 0x8f, 0x75, 0x57, 
	0x84, 0xa3, 0x69, 0x53, 0xb3, 0x68, 0x98, 0x6c, 0x4f, 0x86, 
	0xa0, 0x64, 0x7e, 0x4e, 0xb4, 0x97, 0x55, 0x58, 0x8b, 0xa5, 
	0x50, 0x82, 0x52, 0xab, 0x8f, 0x9f, 0x4d, 0x68, 0x79, 0xa6, 
	0x3f, 0x85, 0x60, 0x9b, 0x8e, 0xb0, 0x43, 0x6f, 0x7a, 0x83, 
	0x54, 0x7e, 0x79, 0xa1, 0x8b, 0xb7, 0x2c, 0x78, 0x57, 0x7f, 
	0x86, 0x8e, 0x92, 0x91, 0x93, 0x1e, 0x9f, 0x71, 0x24, 0xc0, 
	0x9c, 0x93, 0x73, 0x76, 0x83, 0x36, 0xb7, 0x62, 0x10, 0xdc, 
	0x88, 0x8b, 0x89, 0x50, 0x95, 0x55, 0xac, 0x60, 0x18, 0x9d, 
	0x79, 0x7d, 0xab, 0x51, 0x92, 0x7c, 0x8c, 0x8d, 0x34, 0x69, 
	0x7c, 0x6d, 0xca, 0x5a, 0x79, 0x85, 0x78, 0xad, 0x5a, 0x38, 
	0x75, 0x7a, 0xbe, 0x61, 0x68, 0xb8, 0x64, 0xab, 0x72, 0x43, 
	0x6b, 0x80, 0xa0, 0x77, 0x6a, 0xc2, 0x5e, 0x8d, 0x76, 0x4f, 
	0x73, 0x88, 0x99, 0x70, 0x7c, 0xb4, 0x53, 0x83, 0x84, 0x5c, 
	0x66, 0x91, 0x87, 0x70, 0x89, 0xb3, 0x4c, 0x78, 0x8f, 0x67, 
	0x6a, 0x89, 0x7f, 0x75, 0x92, 0xae, 0x4f, 0x63, 0x9b, 0x6d, 
	0x68, 0x89, 0x80, 0x70, 0x94, 0xa1, 0x5a, 0x56, 0xa6, 0x71, 
	0x78, 0x80, 0x76, 0x72, 0x99, 0x87, 0x5f, 0x59, 0x98, 0x75, 
	0x9c, 0x79, 0x69, 0x73, 0x89, 0x67, 0x65, 0x7d, 0x79, 0xa0, 
	0x78, 0x72, 0x76, 0x77, 0x78, 0x76, 0x74, 0x7a, 0x7a, 0x8c, 
	0x7a, 0x7a, 0x72, 0x7a, 0x79, 0x7d, 0x7a, 0x7c, 0x7a, 0x7f, 
	0x79, 0x77, 0x85, 0x85, 0x78, 0x74, 0x7a, 0x7a, 0x79, 0x7e, 
	0x7a, 0x90, 0x8c, 0x75, 0x76, 0x65, 0x7a, 0x70, 0x81, 0x9e, 
	0x71, 0x96, 0x7f, 0x81, 0x6b, 0x72, 0x71, 0x60, 0x7d, 0x9f, 
	0x63, 0x98, 0x6a, 0x94, 0x67, 0x8c, 0x72, 0x5d, 0x74, 0x9c, 
	0x5e, 0x89, 0x5b, 0xa7, 0x50, 0xa0, 0x71, 0x6b, 0x7d, 0xa1, 
	0x59, 0x4e, 0xb4, 0x50, 0xa0, 0x5b, 0x82, 0x8c, 0xa6, 0x58, 
	0x8c, 0x51, 0xa1, 0x57, 0xaa, 0x53, 0x86, 0x79, 0xa5, 0x61, 
	0x8e, 0x52, 0x80, 0x63, 0xbf, 0x43, 0x7d, 0x87, 0x7e, 0x69, 
	0x99, 0x6a, 0x6a, 0xbf, 0x35, 0x87, 0x86, 0x47, 0x79, 0xa4, 
	0x7f, 0x8b, 0x6d, 0x8b, 0x48, 0xb1, 0x6e, 0x1d, 0xbf, 0xa4, 
	0x88, 0x90, 0x5d, 0x84, 0x5b, 0xa7, 0x53, 0x19, 0xd1, 0x8a, 
	0x72, 0xb1, 0x4f, 0x97, 0x68, 0x8b, 0x5f, 0x2d, 0x84, 0x7e, 
	0x60, 0xd0, 0x5c, 0x8b, 0x86, 0x82, 0x82, 0x4a, 0x55, 0x91, 
	0x5d, 0xc5, 0x5f, 0x6d, 0x91, 0x7f, 0xa2, 0x6f, 0x2f, 0x8d, 
	0xaa, 0x6b, 0x66, 0xa7, 0x6b, 0x9a, 0x7d, 0x40, 0x7e, 0x91, 
	0x9a, 0x76, 0x81, 0x9f, 0x4f, 0x84, 0x81, 0x52, 0x77, 0x99, 
	0x8a, 0x8b, 0xa0, 0x49, 0x74, 0x8c, 0x5e, 0x75, 0x94, 0x8b, 
	0x7e, 0x82, 0x9f, 0x4b, 0x65, 0x93, 0x68, 0x89, 0x97, 0x81, 
	0x79, 0x80, 0x9a, 0x4e, 0x51, 0x97, 0x6e, 0x8b, 0x9a, 0x6d, 
	0x80, 0x82, 0x86, 0x59, 0x57, 0x98, 0x71, 0x94, 0x8e, 0x68, 
	0x7f, 0x85, 0x79, 0x68, 0x57, 0x88, 0x74, 0xab, 0x80, 0x68, 
	0x7e, 0x78, 0x69, 0x65, 0x79, 0x77, 0xb4, 0x77, 0x6f, 0x76, 
	0x71, 0x77, 0x72, 0x74, 0x79, 0x79, 0x92, 0x7a, 0x77, 0x79, 
	0x72, 0x79, 0x79, 0x7e, 0x7a, 0x7a, 0x7a, 0x80, 0x7a, 0x78, 
	0x76, 0x7a, 0x8a, 0x90, 0x71, 0x73, 0x79, 0x78, 0x74, 0x7d, 
	0x78, 0xa2, 0x96, 0x6e, 0x7c, 0x60, 0x79, 0x6e, 0x70, 0x9a, 
	0x68, 0xa8, 0x85, 0x72, 0x88, 0x68, 0x70, 0x61, 0x6c, 0xa1, 
	0x57, 0x9c, 0x71, 0x85, 0x96, 0x7d, 0x62, 0x65, 0x6b, 0x9b, 
	0x53, 0x92, 0x67, 0x96, 0x63, 0x97, 0x5b, 0x7e, 0x7d, 0x93, 
	0x58, 0x8c, 0x57, 0xa1, 0x4f, 0xa0, 0x59, 0x98, 0x82, 0xa6, 
	0x63, 0x92, 0x36, 0x92, 0x4c, 0xa6, 0x53, 0xa5, 0x82, 0xaa, 
	0x79, 0x9b, 0x2c, 0x7c, 0x47, 0xc5, 0x44, 0x8e, 0x8b, 0x70, 
	0xa9, 0x39, 0x79, 0x4f, 0xbc, 0x51, 0xa8, 0x85, 0x4d, 0x8c, 
	0xae, 0x4d, 0x8f, 0x45, 0x93, 0x64, 0xbb, 0x74, 0x25, 0xba, 
	0xa1, 0x56, 0xac, 0x46, 0x88, 0x7a, 0x9e, 0x67, 0x25, 0xb4, 
	0x85, 0x50, 0xce, 0x54, 0x8c, 0x88, 0x6f, 0x43, 0x75, 0x89, 
	0x55, 0xc8, 0x64, 0x7c, 0x86, 0x75, 0x96, 0x68, 0x4b, 0x89, 
	0x7a, 0xb2, 0x73, 0x6c, 0x7d, 0x81, 0x89, 0x81, 0x3f, 0x80, 
	0x94, 0x94, 0x7a, 0x7e, 0x82, 0x6a, 0x82, 0x80, 0x4b, 0x84, 
	0x8c, 0x8a, 0x89, 0x94, 0x85, 0x58, 0x70, 0x83, 0x5c, 0x7e, 
	0x9c, 0x75, 0x88, 0x8d, 0x7c, 0x62, 0x6e, 0x87, 0x66, 0x82, 
	0x8d, 0x7a, 0x8c, 0x81, 0x7f, 0x68, 0x64, 0x86, 0x6c, 0x91, 
	0x9b, 0x79, 0x84, 0x82, 0x79, 0x62, 0x58, 0x92, 0x70, 0x99, 
	0xa4, 0x66, 0x7a, 0x83, 0x76, 0x64, 0x53, 0x89, 0x71, 0x9f, 
	0x92, 0x68, 0x85, 0x7c, 0x73, 0x72, 0x56, 0x7f, 0x74, 0xb8, 
	0x75, 0x68, 0x82, 0x77, 0x78, 0x70, 0x65, 0x79, 0x76, 0xb5, 
	0x74, 0x6f, 0x76, 0x72, 0x70, 0x76, 0x7a, 0x7a, 0x89, 0x7a, 
	0x79, 0x7a, 0x75, 0x7c, 0x79, 0x7a, 0x7c, 0x7a, 0x79, 0x80, 
	0x7a, 0x7a, 0x73, 0x7a, 0x89, 0x9c, 0x72, 0x78, 0x74, 0x79, 
	0x74, 0x71, 0x7a, 0x75, 0xa5, 0xa0, 0x6c, 0x85, 0x60, 0x76, 
	0x69, 0x6b, 0x8f, 0x63, 0xb3, 0x98, 0x6a, 0x95, 0x5b, 0x6a, 
	0x6b, 0x63, 0x96, 0x4d, 0xa1, 0x83, 0x6e, 0xb8, 0x6f, 0x58, 
	0x74, 0x67, 0x95, 0x50, 0xa4, 0x6f, 0x78, 0x96, 0x8e, 0x54, 
	0x81, 0x67, 0x98, 0x64, 0x94, 0x66, 0x7d, 0x75, 0x97, 0x4f, 
	0x94, 0x6f, 0xa3, 0x73, 0x92, 0x45, 0x74, 0x63, 0xa1, 0x4b, 
	0xa6, 0x79, 0xab, 0x72, 0x9f, 0x32, 0x5b, 0x5b, 0xb6, 0x47, 
	0xa3, 0x8a, 0x84, 0x76, 0xa1, 0x37, 0x65, 0x5b, 0xbc, 0x59, 
	0xa9, 0x7f, 0x53, 0x8e, 0xab, 0x36, 0x80, 0x62, 0xb6, 0x6a, 
	0xa2, 0x68, 0x38, 0x9f, 0xa5, 0x42, 0x97, 0x6e, 0x98, 0x87, 
	0x80, 0x6c, 0x42, 0x96, 0x8f, 0x4c, 0xaa, 0x84, 0x87, 0x66, 
	0x86, 0x5e, 0x68, 0x84, 0x79, 0xa4, 0x76, 0x82, 0x76, 0x73, 
	0x87, 0x76, 0x54, 0x8c, 0x9c, 0x90, 0x7d, 0x8e, 0x69, 0x68, 
	0x71, 0x7f, 0x5c, 0x95, 0x9d, 0x6b, 0x82, 0x97, 0x6c, 0x67, 
	0x6a, 0x7d, 0x60, 0x8f, 0x9e, 0x6c, 0x74, 0x9b, 0x67, 0x75, 
	0x6d, 0x7d, 0x67, 0x86, 0x9c, 0x67, 0x86, 0x88, 0x69, 0x76, 
	0x74, 0x7a, 0x6e, 0x82, 0x93, 0x6f, 0x90, 0x83, 0x68, 0x79, 
	0x6e, 0x83, 0x6f, 0x90, 0xa8, 0x6b, 0x83, 0x88, 0x64, 0x6b, 
	0x5f, 0x8c, 0x6e, 0x9b, 0xa7, 0x5e, 0x84, 0x82, 0x68, 0x70, 
	0x57, 0x81, 0x70, 0xb5, 0x86, 0x67, 0x8b, 0x79, 0x68, 0x75, 
	0x5b, 0x79, 0x76, 0xbf, 0x6c, 0x6d, 0x89, 0x73, 0x70, 0x72, 
	0x6a, 0x79, 0xa4, 0x75, 0x72, 0x78, 0x76, 0x79, 0x72, 0x77, 
	0x81, 0x7a, 0x7a, 0x79, 0x7c, 0x7a, 0x7c, 0x7a, 0x7c, 0x79, 
	0x81, 0x7a, 0x7a, 0x7a, 0x74, 0x7a, 0x82, 0xa1, 0x76, 0x77, 
	0x74, 0x78, 0x71, 0x73, 0x78, 0x73, 0x9c, 0xa7, 0x6d, 0x86, 
	0x65, 0x75, 0x6a, 0x6b, 0x8a, 0x5f, 0xa3, 0xa6, 0x68, 0x97, 
	0x59, 0x67, 0x79, 0x65, 0x97, 0x5a, 0x9f, 0x93, 0x5d, 0xb0, 
	0x66, 0x59, 0x80, 0x60, 0x98, 0x64, 0xa7, 0x89, 0x54, 0xa0, 
	0x7d, 0x4e, 0x85, 0x5f, 0x99, 0x6f, 0xa5, 0x7f, 0x4d, 0x9a, 
	0x84, 0x4e, 0x91, 0x59, 0xa1, 0x7a, 0xa3, 0x6d, 0x41, 0x8c, 
	0x9b, 0x4c, 0x9a, 0x55, 0xb1, 0x73, 0xa7, 0x5b, 0x3d, 0x7d, 
	0xb5, 0x4c, 0x95, 0x58, 0xa1, 0x78, 0xa7, 0x4d, 0x4b, 0x83, 
	0xcc, 0x5a, 0x7a, 0x55, 0x84, 0x7d, 0xa4, 0x47, 0x4f, 0x89, 
	0xc1, 0x72, 0x85, 0x52, 0x69, 0x93, 0xa3, 0x54, 0x69, 0x8d, 
	0x9e, 0x81, 0x6b, 0x5b, 0x66, 0x7f, 0x92, 0x67, 0x83, 0x84, 
	0x98, 0x8d, 0x62, 0x62, 0x70, 0x70, 0x8a, 0x80, 0x7f, 0x81, 
	0x9b, 0x6f, 0x76, 0x65, 0x78, 0x77, 0x8a, 0x98, 0x71, 0x7d, 
	0xa2, 0x56, 0x71, 0x67, 0x7e, 0x74, 0x8e, 0xa9, 0x64, 0x74, 
	0x9c, 0x55, 0x78, 0x63, 0x79, 0x77, 0x88, 0xa5, 0x64, 0x78, 
	0x94, 0x50, 0x83, 0x6f, 0x75, 0x78, 0x81, 0xa0, 0x62, 0x80, 
	0x91, 0x59, 0x7e, 0x77, 0x7d, 0x74, 0x8a, 0x95, 0x63, 0x8a, 
	0x8e, 0x50, 0x80, 0x73, 0x82, 0x74, 0x96, 0xa4, 0x65, 0x87, 
	0x89, 0x4f, 0x7a, 0x61, 0x83, 0x71, 0xa4, 0x94, 0x5b, 0x8f, 
	0x7d, 0x5c, 0x80, 0x5f, 0x79, 0x74, 0xb1, 0x67, 0x91, 0x72, 
	0x66, 0x7f, 0x66, 0x78, 0x79, 0xaa, 0x6f, 0x6f, 0x89, 0x71, 
	0x74, 0x74, 0x72, 0x79, 0x7c, 0x98, 0x77, 0x77, 0x7a, 0x73, 
	0x79, 0x75, 0x79, 0x82, 0x7a, 0x78, 0x7a, 0x7a, 0x7c, 0x80, 
	0x7a, 0x7a, 0x7a, 0x75, 0x79, 0x83, 0x9e, 0x76, 0x7a, 0x76, 
	0x76, 0x6f, 0x74, 0x7a, 0x75, 0x9a, 0xa6, 0x6f, 0x81, 0x69, 
	0x6f, 0x6b, 0x6f, 0x8c, 0x6a, 0x9f, 0xa1, 0x66, 0x93, 0x59, 
	0x65, 0x75, 0x6c, 0x94, 0x72, 0xa0, 0xa1, 0x57, 0x9e, 0x5a, 
	0x54, 0x86, 0x5d, 0x94, 0x78, 0xaf, 0x98, 0x44, 0x8e, 0x71, 
	0x4e, 0x9a, 0x4f, 0x95, 0x84, 0xa8, 0x95, 0x35, 0xa3, 0x79, 
	0x51, 0x88, 0x4f, 0x9e, 0x85, 0xa7, 0x90, 0x36, 0x9a, 0x95, 
	0x4d, 0x7f, 0x46, 0xb1, 0x84, 0xa2, 0x6f, 0x3d, 0x8c, 0xae, 
	0x52, 0x85, 0x3b, 0xb5, 0x81, 0xa3, 0x5d, 0x51, 0x96, 0xb3, 
	0x5e, 0x6b, 0x35, 0xa4, 0x8f, 0x4e, 0x56, 0x8e, 0xbf, 0x76, 
	0x80, 0x39, 0x88, 0x7a, 0x82, 0x62, 0x54, 0x8b, 0xb7, 0x80, 
	0x79, 0x59, 0x7c, 0x77, 0x7d, 0x77, 0x6b, 0x7c, 0xbf, 0x81, 
	0x6a, 0x56, 0x7d, 0x74, 0x77, 0x7a, 0xb0, 0x6a, 0x61, 0x74, 
	0x88, 0x7f, 0x91, 0x74, 0x84, 0xa5, 0x56, 0x68, 0x69, 0x77, 
	0x90, 0x7c, 0x99, 0x74, 0x85, 0x98, 0x4e, 0x72, 0x63, 0x6f, 
	0x8e, 0x88, 0x99, 0x6d, 0x85, 0x9b, 0x43, 0x65, 0x70, 0x84, 
	0x93, 0x99, 0x69, 0x7f, 0x92, 0x48, 0x79, 0x74, 0x76, 0x7a, 
	0x94, 0x9b, 0x6c, 0x82, 0x8c, 0x41, 0x86, 0x6e, 0x74, 0x9f, 
	0x8f, 0x6c, 0x8f, 0x7c, 0x4c, 0x89, 0x65, 0x79, 0x72, 0xa4, 
	0x7c, 0x65, 0xa3, 0x70, 0x5a, 0x89, 0x67, 0x75, 0x74, 0xaa, 
	0x75, 0x6d, 0x91, 0x73, 0x69, 0x7e, 0x70, 0x77, 0x77, 0xa3, 
	0x72, 0x74, 0x82, 0x74, 0x77, 0x71, 0x7a, 0x79, 0x89, 0x79, 
	0x78, 0x7d, 0x78, 0x7a, 0x77, 0x7c, 0x7d, 0x7a, 0x7a, 0x7c, 
	0x80, 0x7a, 0x7a, 0x7a, 0x76, 0x7a, 0x84, 0x92, 0x77, 0x7c, 
	0x79, 0x75, 0x72, 0x76, 0x75, 0x7c, 0x8d, 0x9c, 0x73, 0x87, 
	0x6e, 0x6f, 0x6c, 0x72, 0x82, 0x89, 0x93, 0x97, 0x6e, 0x84, 
	0x61, 0x68, 0x71, 0x6e, 0x8b, 0x8c, 0x98, 0x97, 0x5b, 0x8d, 
	0x56, 0x5f, 0x8a, 0x62, 0x8f, 0x8b, 0x98, 0x91, 0x4e, 0x92, 
	0x63, 0x59, 0x99, 0x55, 0x88, 0x91, 0x97, 0x8d, 0x4e, 0x97, 
	0x75, 0x5c, 0x86, 0x57, 0x91, 0x88, 0xa2, 0x7d, 0x4d, 0x92, 
	0x85, 0x56, 0x86, 0x57, 0xa4, 0x86, 0x9a, 0x71, 0x51, 0x8c, 
	0x97, 0x5d, 0x77, 0x52, 0xae, 0x6d, 0x8d, 0x63, 0x63, 0x93, 
	0xa8, 0x67, 0x76, 0x49, 0x9f, 0x5c, 0x82, 0x67, 0x63, 0x8f, 
	0xbf, 0x72, 0x79, 0x4f, 0x8a, 0x61, 0x7f, 0x6e, 0x5f, 0x87, 
	0xca, 0x70, 0x84, 0x54, 0x7d, 0x74, 0x78, 0x72, 0x6b, 0x84, 
	0xc4, 0x6a, 0x7d, 0x5a, 0x79, 0x7f, 0x71, 0x80, 0x7d, 0x80, 
	0xac, 0x69, 0x79, 0x5b, 0x78, 0x86, 0x7c, 0x8c, 0x74, 0x82, 
	0xa0, 0x62, 0x6e, 0x63, 0x6e, 0x93, 0x8a, 0x89, 0x77, 0x85, 
	0xa1, 0x54, 0x70, 0x58, 0x6d, 0x95, 0x95, 0x93, 0x75, 0x79, 
	0x96, 0x4c, 0x75, 0x5f, 0x69, 0x87, 0xa0, 0x96, 0x7f, 0x7d, 
	0x86, 0x45, 0x78, 0x68, 0x6f, 0x82, 0x92, 0x85, 0x7e, 0x95, 
	0x45, 0x85, 0x6e, 0x71, 0x9d, 0x72, 0x7a, 0xa1, 0x71, 0x50, 
	0x85, 0x72, 0x74, 0x6f, 0xa8, 0x70, 0x72, 0x9a, 0x74, 0x5f, 
	0x83, 0x72, 0x77, 0x71, 0xa9, 0x6e, 0x76, 0x8b, 0x75, 0x6b, 
	0x75, 0x79, 0x78, 0x78, 0x97, 0x72, 0x78, 0x7f, 0x78, 0x77, 
	0x70, 0x7e, 0x7a, 0x84, 0x79, 0x78, 0x7e, 0x79, 0x7a, 0x78, 
	0x7c, 0x7c, 0x7a, 0x7d, 0x7f, 0x7a, 0x79, 0x7a, 0x7a, 0x77, 
	0x7a, 0x81, 0x8a, 0x78, 0x7c, 0x7a, 0x76, 0x75, 0x78, 0x6f, 
	0x81, 0x88, 0x93, 0x76, 0x85, 0x76, 0x73, 0x6b, 0x74, 0x77, 
	0x9c, 0x89, 0x93, 0x72, 0x6c, 0x76, 0x66, 0x6b, 0x82, 0x9d, 
	0x91, 0x96, 0x69, 0x73, 0x5e, 0x74, 0x76, 0x65, 0x8c, 0x92, 
	0x8f, 0x8a, 0x60, 0x7d, 0x58, 0x7a, 0x8c, 0x5c, 0x91, 0x8c, 
	0x9a, 0x78, 0x5e, 0x8d, 0x57, 0x72, 0x86, 0x65, 0x92, 0x86, 
	0x9a, 0x5d, 0x90, 0x60, 0x6a, 0x80, 0x6b, 0x98, 0x72, 0x90, 
	0x7d, 0x67, 0x85, 0x6d, 0x70, 0x81, 0x6f, 0xa2, 0x53, 0x8d, 
	0x7c, 0x6e, 0x8d, 0x75, 0x66, 0x8e, 0x6d, 0x9d, 0x44, 0x80, 
	0x72, 0x6c, 0x95, 0x8b, 0x6a, 0x9a, 0x6c, 0xa2, 0x4e, 0x70, 
	0x71, 0x6b, 0x9e, 0x8d, 0x63, 0xa2, 0x63, 0x92, 0x6e, 0x67, 
	0x73, 0x6f, 0x8c, 0x84, 0x6c, 0x9e, 0x6c, 0x8a, 0x84, 0x65, 
	0x78, 0x7a, 0x84, 0x89, 0x73, 0x8d, 0x5d, 0x81, 0x8e, 0x74, 
	0x81, 0x76, 0x8b, 0x85, 0x69, 0x7d, 0x5e, 0x79, 0x9d, 0x80, 
	0x85, 0x7c, 0x84, 0x60, 0x7d, 0x5c, 0x6c, 0x97, 0x94, 0x85, 
	0x86, 0x87, 0x70, 0x58, 0x80, 0x5f, 0x68, 0x87, 0x9f, 0x88, 
	0x97, 0x8f, 0x70, 0x50, 0x75, 0x5f, 0x66, 0x7f, 0xa4, 0x79, 
	0x90, 0x93, 0x71, 0x4c, 0x73, 0x6c, 0x76, 0x9f, 0x6d, 0x8d, 
	0x8b, 0x73, 0x56, 0x82, 0x7e, 0x75, 0x71, 0x9f, 0x74, 0x7d, 
	0x88, 0x72, 0x67, 0x77, 0x81, 0x7a, 0x75, 0x93, 0x73, 0x77, 
	0x86, 0x75, 0x6f, 0x76, 0x83, 0x7a, 0x79, 0x89, 0x76, 0x79, 
	0x80, 0x79, 0x78, 0x75, 0x7e, 0x7f, 0x79, 0x7a, 0x7e, 0x7a, 
	0x7a, 0x7a, 0x7a, 0x7c, 0x7d, 0x7a, 0x7a, 0x79, 0x79, 0x86, 
	0x7a, 0x7c, 0x78, 0x78, 0x7a, 0x72, 0x7e, 0x92, 0x79, 0x81, 
	0x7a, 0x7d, 0x6c, 0x75, 0x71, 0x93, 0x78, 0x99, 0x76, 0x81, 
	0x77, 0x85, 0x55, 0x71, 0x78, 0x9a, 0x77, 0x9f, 0x72, 0x75, 
	0x71, 0x8e, 0x56, 0x6c, 0x82, 0x8e, 0x73, 0x9a, 0x6e, 0x73, 
	0x66, 0x95, 0x6b, 0x6a, 0x8a, 0x82, 0x79, 0x83, 0x6f, 0x84, 
	0x5b, 0x7d, 0x87, 0x75, 0x93, 0x78, 0x81, 0x83, 0x72, 0x8c, 
	0x54, 0x7f, 0x81, 0x6e, 0x9d, 0x67, 0x7c, 0x82, 0x75, 0x97, 
	0x4b, 0x7e, 0xa6, 0x5c, 0x81, 0x88, 0x7a, 0x92, 0x4b, 0x70, 
	0x8e, 0x6f, 0xa7, 0x61, 0x79, 0x77, 0x6e, 0x96, 0x56, 0x6a, 
	0xa1, 0x71, 0xa6, 0x5f, 0x6b, 0x7e, 0x70, 0x89, 0x5b, 0x6a, 
	0xb8, 0x6b, 0xa0, 0x68, 0x6a, 0x71, 0x77, 0x8a, 0x5f, 0x76, 
	0xad, 0x6b, 0x8f, 0x80, 0x69, 0x75, 0x7d, 0x84, 0x60, 0x7c, 
	0xaa, 0x5d, 0x79, 0x8c, 0x6e, 0x70, 0x85, 0x8c, 0x60, 0x75, 
	0xa4, 0x61, 0x6f, 0x96, 0x74, 0x81, 0x86, 0x7e, 0x64, 0x72, 
	0x91, 0x69, 0x5e, 0x85, 0x88, 0x88, 0x97, 0x77, 0x6d, 0x67, 
	0x8b, 0x6f, 0x5d, 0x7e, 0x97, 0x74, 0x99, 0x81, 0x72, 0x59, 
	0x87, 0x64, 0x78, 0x92, 0x6f, 0x99, 0x84, 0x72, 0x57, 0x8a, 
	0x83, 0x6e, 0x75, 0x8f, 0x70, 0x8d, 0x7d, 0x73, 0x5e, 0x81, 
	0x91, 0x75, 0x75, 0x8c, 0x70, 0x7c, 0x7f, 0x76, 0x6a, 0x92, 
	0x79, 0x77, 0x83, 0x76, 0x78, 0x80, 0x78, 0x6f, 0x7c, 0x8a, 
	0x7a, 0x7a, 0x81, 0x79, 0x79, 0x7f, 0x7a, 0x78, 0x78, 0x7f, 
	0x7d, 0x7a, 0x7d, 0x7a, 0x7a, 0x7c, 0x7c, 0x7a, 0x7a, 0x78, 
	0x81, 0x7c, 0x7c, 0x79, 0x7a, 0x79, 0x79, 0x74, 0x89, 0x7a, 
	0x7a, 0x85, 0x70, 0x76, 0x7f, 0x6d, 0x91, 0x78, 0x7a, 0x7a, 
	0x93, 0x61, 0x7c, 0x75, 0x7f, 0x64, 0xa1, 0x75, 0x78, 0x78, 
	0x9b, 0x5a, 0x7c, 0x70, 0x76, 0x5c, 0xab, 0x71, 0x75, 0xa0, 
	0x5e, 0x83, 0x72, 0x6b, 0x5d, 0xa2, 0x73, 0x7d, 0x6f, 0x9b, 
	0x74, 0x85, 0x71, 0x61, 0x5f, 0xa2, 0x77, 0x90, 0x69, 0x96, 
	0x7d, 0x79, 0x75, 0x57, 0x5c, 0xac, 0x77, 0x8e, 0x63, 0x97, 
	0x80, 0x7e, 0x79, 0x53, 0x63, 0xac, 0x79, 0x90, 0x5c, 0x8f, 
	0x91, 0x70, 0x85, 0x53, 0x6e, 0xa1, 0x6a, 0x95, 0x5b, 0x8f, 
	0x91, 0x6d, 0x86, 0x4f, 0x72, 0xa4, 0x67, 0x9f, 0x59, 0x90, 
	0x8d, 0x68, 0x7c, 0x55, 0x9c, 0x70, 0x98, 0x5b, 0x8c, 0x93, 
	0x64, 0x6f, 0x5e, 0x75, 0x8e, 0x72, 0x90, 0x5e, 0x8d, 0x9c, 
	0x75, 0x65, 0x63, 0x73, 0x8f, 0x79, 0x84, 0x65, 0x8a, 0x9f, 
	0x79, 0x62, 0x75, 0x79, 0x83, 0x76, 0x84, 0x6b, 0x85, 0x85, 
	0x8c, 0x61, 0x7a, 0x7c, 0x6d, 0x7f, 0x84, 0x6f, 0x77, 0x90, 
	0x92, 0x66, 0x75, 0x6a, 0x87, 0x7d, 0x72, 0x6d, 0x94, 0x97, 
	0x6b, 0x7a, 0x77, 0x6f, 0x84, 0x7a, 0x75, 0x68, 0x85, 0xa1, 
	0x71, 0x7a, 0x7c, 0x75, 0x80, 0x79, 0x77, 0x6a, 0x7c, 0x9d, 
	0x76, 0x79, 0x77, 0x7c, 0x7e, 0x79, 0x6f, 0x7a, 0x92, 0x79, 
	0x7a, 0x79, 0x7e, 0x7a, 0x70, 0x7a, 0x89, 0x82, 0x7a, 0x79, 
	0x7e, 0x77, 0x7a, 0x7f, 0x79, 0x7a, 0x7a, 0x7c, 0x7a, 0x7c, 
	0x7d, 0x79, 0x78, 0x7c, 0x83, 0x75, 0x7d, 0x7a, 0x78, 0x76, 
	0x81, 0x79, 0x79, 0x86, 0x70, 0x85, 0x77, 0x76, 0x73, 0x88, 
	0x73, 0x77, 0x7a, 0x8c, 0x6e, 0x8a, 0x73, 0x72, 0x6c, 0x91, 
	0x6c, 0x78, 0x79, 0x95, 0x6b, 0x90, 0x6e, 0x6f, 0x64, 0x9e, 
	0x65, 0x79, 0x77, 0xa5, 0x64, 0x91, 0x67, 0x6a, 0x62, 0xa6, 
	0x66, 0x82, 0x76, 0xa9, 0x63, 0x8c, 0x60, 0x5f, 0x63, 0xab, 
	0x66, 0x86, 0x75, 0xa6, 0x6b, 0x90, 0x60, 0x60, 0x64, 0xae, 
	0x5d, 0x8b, 0x74, 0xac, 0x6d, 0x88, 0x5e, 0x62, 0x67, 0xb1, 
	0x53, 0x8d, 0x73, 0xab, 0x6a, 0x8f, 0x61, 0x60, 0x6a, 0xa7, 
	0x55, 0x8f, 0x72, 0xaa, 0x6f, 0x8e, 0x60, 0x5f, 0x70, 0x9b, 
	0x57, 0x84, 0x71, 0xa7, 0x7c, 0x96, 0x62, 0x62, 0x74, 0x8c, 
	0x57, 0x87, 0x71, 0xa6, 0x85, 0x91, 0x67, 0x6a, 0x74, 0x84, 
	0x50, 0x86, 0x73, 0x9e, 0x85, 0x9a, 0x68, 0x72, 0x73, 0x7a, 
	0x4f, 0x85, 0x75, 0x98, 0x82, 0xa5, 0x6d, 0x78, 0x70, 0x77, 
	0x58, 0x7d, 0x76, 0x90, 0x80, 0xa9, 0x72, 0x79, 0x6e, 0x61, 
	0x78, 0x7d, 0x7d, 0xac, 0x74, 0x7a, 0x72, 0x78, 0x6b, 0x7a, 
	0x79, 0x72, 0xad, 0x76, 0x74, 0x77, 0x72, 0x7d, 0x7a, 0x74, 
	0x79, 0x9c, 0x79, 0x76, 0x79, 0x78, 0x80, 0x78, 0x79, 0x88, 
	0x78, 0x79, 0x7f, 0x78, 0x7a, 0x81, 0x7a, 0x7e, 0x7c, 0x7c, 
	0x7a, 0x7a, 0x7d, 0x7c, 0x7a, 0x79, 0x79, 0x80, 0x7a, 0x7a, 
	0x7c, 0x78, 0x7a, 0x7a, 0x78, 0x85, 0x79, 0x7a, 0x7a, 0x7e, 
	0x74, 0x77, 0x7f, 0x79, 0x86, 0x77, 0x79, 0x79, 0x7d, 0x6f, 
	0x77, 0x7a, 0x87, 0x78, 0x89, 0x74, 0x79, 0x79, 0x7c, 0x68, 
	0x78, 0x7a, 0x8e, 0x75, 0x90, 0x75, 0x77, 0x79, 0x65, 0x7a, 
	0x7a, 0x8f, 0x71, 0x96, 0x75, 0x77, 0x78, 0x7a, 0x61, 0x7d, 
	0x79, 0x8f, 0x72, 0x97, 0x76, 0x76, 0x78, 0x79, 0x5c, 0x7d, 
	0x79, 0x90, 0x71, 0x9e, 0x74, 0x73, 0x77, 0x78, 0x5b, 0x7a, 
	0x79, 0x9d, 0x71, 0x9d, 0x72, 0x74, 0x78, 0x76, 0x57, 0x77, 
	0x79, 0x9e, 0x71, 0xa5, 0x74, 0x77, 0x78, 0x77, 0x5a, 0x79, 
	0x9f, 0x71, 0x96, 0x75, 0x78, 0x78, 0x5c, 0x79, 0x79, 0x9b, 
	0x74, 0x92, 0x75, 0x7a, 0x77, 0x61, 0x78, 0x7a, 0x98, 0x76, 
	0x8e, 0x77, 0x7a, 0x78, 0x65, 0x75, 0x7a, 0x91, 0x77, 0x8f, 
	0x7a, 0x7a, 0x7a, 0x7a, 0x6c, 0x78, 0x7a, 0x81, 0x78, 0x8f, 
	0x79, 0x7a, 0x7a, 0x73, 0x79, 0x7a, 0x8c, 0x7a, 0x7a, 0x7a, 
	0x77, 0x7c, 0x7a, 0x7a, 0x83, 0x7a, 0x79, 0x7c, 0x7d, 0x7c, 
	0x7a, 0x7c, 0x79, 0x7c, 0x7c, 0x7a, 0x7d, 0x79, 0x7e, 0x7a, 
	0x7a, 0x7d, 0x79, 0x7f, 0x7a, 0x7a, 0x79, 0x83, 0x7a, 0x78, 
	0x7a, 0x7a, 0x77, 0x7a, 0x84, 0x7a, 0x7a, 0x79, 0x7a, 0x83, 
	0x7a, 0x79, 0x7a, 0x7a, 0x79, 0x7a, 0x84, 0x78, 0x7a, 0x7a, 
	0x79, 0x7a, 0x84, 0x77, 0x79, 0x7a, 0x84, 0x77, 0x7a, 0x80, 
	0x79, 0x7c, 0x7c, 0x7c, 0x7a, 0x7c, 0x7c, 0x00, 0x96, 0xb5, 
	0x30, 0x35, 0xf3, 0x2d, 0x26, 0xb4, 0x0c, 0x27, 0x24, 0x3d, 
	0xda, 0xac, 0x02, 0x39, 0xb9, 0xbd, 0xb8, 0xb3, 
};
unsigned char *tmp_content = (void*)0;
const unsigned char ops_content[0] __attribute__ ((aligned(4))) = {
};
unsigned char data_content[40] __attribute__ ((aligned(4)));
