// This file is automatically generated by NPU compiler.
const unsigned int total_size = 10718;
const unsigned int npu_size = 9110;
const char *version = "1.5.7rc1";
const char *pb_md5 = "be8d1cbf872abe8d96e653e05d694c17";
const char *npu_unit = "NPU32";
const char *model_info = "(20220824133330)";

typedef unsigned short npu_data_t;

struct input {
	npu_data_t input_x[1][784];
} __attribute__ ((packed));

struct output {
	float result[1][10];
} __attribute__ ((packed));

struct in_out {
	npu_data_t input_x[1][784];
	float result[1][10];
} __attribute__ ((packed));


const unsigned char cmd_content[140] __attribute__ ((aligned(4))) = {
	0x40, 0x01, 0x02, 0x00, 0x00, 0x00, 0x00, 0x30, 0x80, 0x0c, 
	0x00, 0x60, 0x00, 0x00, 0x00, 0x10, 0x00, 0x00, 0x00, 0x00, 
	0x00, 0x00, 0x00, 0x60, 0x0a, 0x00, 0x10, 0x03, 0x0a, 0x10, 
	0x01, 0x19, 0x00, 0x00, 0x00, 0x01, 0x00, 0x00, 0x00, 0x00, 
	0x69, 0xb9, 0xad, 0x1d, 0x00, 0x64, 0x00, 0x80, 0x01, 0x03, 
	0x02, 0x00, 0x00, 0x00, 0x00, 0x10, 0xce, 0x22, 0x00, 0x60, 
	0x00, 0x00, 0x00, 0x00, 0x14, 0x00, 0x00, 0x10, 0x05, 0x00, 
	0x00, 0x00, 0x0a, 0x01, 0x10, 0x00, 0x0a, 0x00, 0x0a, 0x00, 
	0x0a, 0x00, 0x0a, 0x00, 0x00, 0x00, 0x00, 0x00, 0x00, 0x00, 
	0x00, 0x00, 0x01, 0x01, 0x00, 0x00, 0x00, 0x00, 0x00, 0x70, 
	0x14, 0x00, 0x00, 0x10, 0x00, 0x00, 0x00, 0x00, 0x00, 0x00, 
	0x00, 0x00, 0x00, 0x00, 0x00, 0x40, 0x07, 0x00, 0x01, 0x00, 
	0x0a, 0x01, 0x10, 0x00, 0x0a, 0x00, 0x0a, 0x00, 0x0a, 0x00, 
	0x0a, 0x00, 0x00, 0x00, 0x00, 0x00, 0x00, 0x00, 0x00, 0x00, 
};
const unsigned char weight_content[8930] __attribute__ ((aligned(4))) = {
	0x00, 0x00, 0x00, 0x00, 0x00, 0x00, 0x00, 0x00, 0x00, 0x00, 
	0x00, 0x00, 0x00, 0x00, 0x00, 0x00, 0x00, 0x00, 0x00, 0x00, 
	0x00, 0x00, 0x00, 0x00, 0x00, 0x00, 0x00, 0x00, 0x00, 0x00, 
	0x00, 0x00, 0x00, 0x00, 0x00, 0x00, 0x00, 0x00, 0x00, 0x00, 
	0x00, 0x00, 0x00, 0x00, 0x00, 0x00, 0x00, 0x00, 0x00, 0x00, 
	0x00, 0x00, 0x02, 0x00, 0x00, 0x00, 0x00, 0x00, 0x00, 0x00, 
	0x00, 0x00, 0x00, 0x00, 0x00, 0x00, 0x00, 0x00, 0x00, 0x00, 
	0x00, 0x00, 0x00, 0x00, 0x00, 0x00, 0x00, 0x00, 0x00, 0x00, 
	0x00, 0x00, 0x00, 0x00, 0x00, 0x00, 0x00, 0x00, 0x00, 0x00, 
	0x00, 0x00, 0x00, 0x00, 0x00, 0x00, 0x00, 0x00, 0x00, 0x00, 
	0x00, 0x00, 0x00, 0x00, 0x00, 0x00, 0x00, 0x00, 0x00, 0x00, 
	0x00, 0x00, 0x00, 0x00, 0x00, 0x00, 0x00, 0x00, 0x00, 0x00, 
	0x00, 0x00, 0x00, 0x00, 0x00, 0x00, 0x00, 0x00, 0x00, 0x00, 
	0x00, 0x00, 0x00, 0x00, 0x00, 0x00, 0x0a, 0x00, 0x00, 0x00, 
	0x0a, 0x00, 0x00, 0x00, 0x0a, 0x00, 0x00, 0x00, 0x0a, 0x00, 
	0x00, 0x00, 0x2a, 0x00, 0x00, 0x00, 0xaa, 0x00, 0x00, 0x00, 
	0xab, 0x40, 0x00, 0x00, 0xaa, 0x00, 0x00, 0x00, 0x4a, 0x00, 
	0x00, 0x00, 0x4a, 0x40, 0x00, 0x00, 0xaa, 0x40, 0x00, 0x00, 
	0x8a, 0x40, 0x00, 0x00, 0x2a, 0x00, 0x00, 0x00, 0x2a, 0x00, 
	0x00, 0x00, 0x0a, 0x00, 0x00, 0x00, 0x0a, 0x00, 0x00, 0x00, 
	0x0a, 0x00, 0x00, 0x00, 0x00, 0x00, 0x00, 0x00, 0x00, 0x00, 
	0x00, 0x00, 0x00, 0x00, 0x00, 0x00, 0x00, 0x00, 0x00, 0x00, 
	0x00, 0x00, 0x00, 0x00, 0x00, 0x00, 0x00, 0x00, 0x00, 0x00, 
	0x00, 0x00, 0x00, 0x00, 0x00, 0x00, 0x00, 0x00, 0x00, 0x00, 
	0x00, 0x00, 0x00, 0x00, 0x00, 0x00, 0x00, 0x00, 0x0a, 0x00, 
	0x00, 0x00, 0x0a, 0x00, 0x00, 0x00, 0xca, 0x00, 0x00, 0x00, 
	0xfe, 0x80, 0x00, 0x00, 0xef, 0xc0, 0x00, 0x00, 0xff, 0xc0, 
	0x00, 0x00, 0xbf, 0xc0, 0x00, 0x00, 0xef, 0xc0, 0x00, 0x00, 
	0xef, 0xc0, 0x00, 0x00, 0xff, 0xc0, 0x00, 0x00, 0xef, 0xc0, 
	0x00, 0x00, 0xaf, 0xc0, 0x00, 0x00, 0xfe, 0xc0, 0x00, 0x00, 
	0xbe, 0xc0, 0x00, 0x00, 0xfe, 0xc0, 0x00, 0x00, 0xfe, 0x80, 
	0x00, 0x00, 0xae, 0x80, 0x00, 0x00, 0x2e, 0x00, 0x00, 0x00, 
	0x20, 0x00, 0x00, 0x00, 0x22, 0x00, 0x00, 0x00, 0x00, 0x00, 
	0x00, 0x00, 0x00, 0x00, 0x00, 0x00, 0x00, 0x00, 0x00, 0x00, 
	0x00, 0x00, 0x00, 0x00, 0x00, 0x00, 0x00, 0x00, 0x00, 0x00, 
	0x00, 0x00, 0x00, 0x00, 0x00, 0x00, 0xb4, 0x00, 0x00, 0x00, 
	0xbe, 0x00, 0x00, 0x00, 0xff, 0x80, 0x00, 0x00, 0xff, 0xc0, 
	0x00, 0x00, 0xff, 0xc0, 0x00, 0x00, 0xff, 0xc0, 0x00, 0x00, 
	0xff, 0xc0, 0x00, 0x00, 0xff, 0xc0, 0x00, 0x00, 0xff, 0xc0, 
	0x00, 0x00, 0xff, 0xc0, 0x00, 0x00, 0xff, 0xc0, 0x00, 0x00, 
	0xfb, 0xc0, 0x00, 0x00, 0xff, 0xc0, 0x00, 0x00, 0xff, 0xc0, 
	0x00, 0x00, 0xff, 0xc0, 0x00, 0x00, 0xf7, 0xc0, 0x00, 0x00, 
	0xf7, 0xc0, 0x00, 0x00, 0xf6, 0xc0, 0x00, 0x00, 0xfe, 0x80, 
	0x00, 0x00, 0xfe, 0x00, 0x00, 0x00, 0x04, 0x00, 0x00, 0x00, 
	0x42, 0x00, 0x00, 0x00, 0x00, 0x00, 0x00, 0x00, 0x00, 0x00, 
	0x00, 0x00, 0x00, 0x00, 0x00, 0x00, 0x00, 0x00, 0x00, 0x00, 
	0x10, 0x00, 0x00, 0x00, 0x3c, 0x00, 0x00, 0x00, 0xff, 0x80, 
	0x00, 0x00, 0xbd, 0xc0, 0x00, 0x00, 0xff, 0xc0, 0x00, 0x00, 
	0xff, 0xc0, 0x00, 0x00, 0xff, 0xc0, 0x00, 0x00, 0xff, 0xc0, 
	0x00, 0x00, 0xff, 0xc0, 0x00, 0x00, 0xff, 0xc0, 0x00, 0x00, 
	0xff, 0xc0, 0x00, 0x00, 0xff, 0xc0, 0x00, 0x00, 0xff, 0xc0, 
	0x00, 0x00, 0xff, 0xc0, 0x00, 0x00, 0xff, 0xc0, 0x00, 0x00, 
	0xff, 0xc0, 0x00, 0x00, 0xff, 0xc0, 0x00, 0x00, 0xff, 0xc0, 
	0x00, 0x00, 0xff, 0xc0, 0x00, 0x00, 0xff, 0xc0, 0x00, 0x00, 
	0xff, 0xc0, 0x00, 0x00, 0xff, 0xc0, 0x00, 0x00, 0xee, 0x00, 
	0x00, 0x00, 0x00, 0x80, 0x00, 0x00, 0x00, 0x00, 0x00, 0x00, 
	0x00, 0x00, 0x00, 0x00, 0x00, 0x00, 0x00, 0x00, 0x00, 0x00, 
	0x00, 0x00, 0x16, 0x80, 0x00, 0x00, 0x9c, 0xc0, 0x00, 0x00, 
	0xff, 0xc0, 0x00, 0x00, 0xff, 0xc0, 0x00, 0x00, 0xff, 0xc0, 
	0x00, 0x00, 0xff, 0xc0, 0x00, 0x00, 0xff, 0xc0, 0x00, 0x00, 
	0xff, 0xc0, 0x00, 0x00, 0xff, 0xc0, 0x00, 0x00, 0xfb, 0xc0, 
	0x00, 0x00, 0xff, 0xc0, 0x00, 0x00, 0xff, 0xc0, 0x00, 0x00, 
	0xff, 0xc0, 0x00, 0x00, 0xff, 0xc0, 0x00, 0x00, 0xff, 0xc0, 
	0x00, 0x00, 0xef, 0xc0, 0x00, 0x00, 0xff, 0xc0, 0x00, 0x00, 
	0xff, 0xc0, 0x00, 0x00, 0xff, 0xc0, 0x00, 0x00, 0xff, 0xc0, 
	0x00, 0x00, 0xff, 0xc0, 0x00, 0x00, 0xff, 0xc0, 0x00, 0x00, 
	0xfd, 0xc0, 0x00, 0x00, 0xee, 0x00, 0x00, 0x00, 0x02, 0x00, 
	0x00, 0x00, 0x00, 0x00, 0x00, 0x00, 0x00, 0x00, 0x00, 0x00, 
	0x10, 0x00, 0x00, 0x00, 0x3f, 0xc0, 0x00, 0x00, 0xbf, 0xc0, 
	0x00, 0x00, 0xff, 0xc0, 0x00, 0x00, 0xff, 0xc0, 0x00, 0x00, 
	0xff, 0xc0, 0x00, 0x00, 0xff, 0x40, 0x00, 0x00, 0xff, 0xc0, 
	0x00, 0x00, 0xff, 0xc0, 0x00, 0x00, 0xff, 0xc0, 0x00, 0x00, 
	0xff, 0xc0, 0x00, 0x00, 0xff, 0xc0, 0x00, 0x00, 0xff, 0xc0, 
	0x00, 0x00, 0xff, 0xc0, 0x00, 0x00, 0xff, 0xc0, 0x00, 0x00, 
	0xff, 0xc0, 0x00, 0x00, 0xff, 0xc0, 0x00, 0x00, 0xef, 0xc0, 
	0x00, 0x00, 0xff, 0xc0, 0x00, 0x00, 0xff, 0x40, 0x00, 0x00, 
	0xff, 0xc0, 0x00, 0x00, 0xff, 0xc0, 0x00, 0x00, 0xff, 0xc0, 
	0x00, 0x00, 0xff, 0xc0, 0x00, 0x00, 0xff, 0x40, 0x00, 0x00, 
	0x84, 0x00, 0x00, 0x00, 0x00, 0x00, 0x00, 0x00, 0x10, 0x00, 
	0x00, 0x00, 0x25, 0x40, 0x00, 0x00, 0x37, 0xc0, 0x00, 0x00, 
	0xff, 0xc0, 0x00, 0x00, 0xff, 0xc0, 0x00, 0x00, 0xff, 0xc0, 
	0x00, 0x00, 0xfb, 0xc0, 0x00, 0x00, 0xff, 0xc0, 0x00, 0x00, 
	0xff, 0xc0, 0x00, 0x00, 0xff, 0xc0, 0x00, 0x00, 0xff, 0xc0, 
	0x00, 0x00, 0xff, 0xc0, 0x00, 0x00, 0xff, 0xc0, 0x00, 0x00, 
	0xff, 0xc0, 0x00, 0x00, 0xff, 0xc0, 0x00, 0x00, 0xff, 0xc0, 
	0x00, 0x00, 0xff, 0xc0, 0x00, 0x00, 0xff, 0xc0, 0x00, 0x00, 
	0xff, 0xc0, 0x00, 0x00, 0xff, 0xc0, 0x00, 0x00, 0xff, 0xc0, 
	0x00, 0x00, 0xff, 0xc0, 0x00, 0x00, 0xff, 0xc0, 0x00, 0x00, 
	0xff, 0xc0, 0x00, 0x00, 0xff, 0xc0, 0x00, 0x00, 0xef, 0x40, 
	0x00, 0x00, 0x04, 0x00, 0x00, 0x00, 0x00, 0x00, 0x00, 0x00, 
	0x01, 0x40, 0x00, 0x00, 0x25, 0xc0, 0x00, 0x00, 0xbf, 0xc0, 
	0x00, 0x00, 0xff, 0x40, 0x00, 0x00, 0xff, 0xc0, 0x00, 0x00, 
	0xf7, 0xc0, 0x00, 0x00, 0xff, 0xc0, 0x00, 0x00, 0xff, 0xc0, 
	0x00, 0x00, 0xff, 0xc0, 0x00, 0x00, 0xff, 0xc0, 0x00, 0x00, 
	0xff, 0x40, 0x00, 0x00, 0xff, 0xc0, 0x00, 0x00, 0xff, 0xc0, 
	0x00, 0x00, 0xff, 0xc0, 0x00, 0x00, 0xff, 0xc0, 0x00, 0x00, 
	0xff, 0xc0, 0x00, 0x00, 0xff, 0xc0, 0x00, 0x00, 0xff, 0xc0, 
	0x00, 0x00, 0xff, 0xc0, 0x00, 0x00, 0xff, 0xc0, 0x00, 0x00, 
	0xff, 0xc0, 0x00, 0x00, 0xff, 0xc0, 0x00, 0x00, 0xff, 0xc0, 
	0x00, 0x00, 0xf7, 0xc0, 0x00, 0x00, 0xff, 0x40, 0x00, 0x00, 
	0xef, 0xc0, 0x00, 0x00, 0x04, 0x00, 0x00, 0x00, 0x00, 0x00, 
	0x00, 0x00, 0x01, 0x40, 0x00, 0x00, 0x1d, 0xc0, 0x00, 0x00, 
	0xbf, 0xc0, 0x00, 0x00, 0xff, 0xc0, 0x00, 0x00, 0xff, 0xc0, 
	0x00, 0x00, 0xff, 0xc0, 0x00, 0x00, 0xff, 0xc0, 0x00, 0x00, 
	0xff, 0xc0, 0x00, 0x00, 0xff, 0xc0, 0x00, 0x00, 0xff, 0xc0, 
	0x00, 0x00, 0xff, 0xc0, 0x00, 0x00, 0xff, 0xc0, 0x00, 0x00, 
	0xff, 0xc0, 0x00, 0x00, 0xff, 0xc0, 0x00, 0x00, 0xff, 0xc0, 
	0x00, 0x00, 0xff, 0xc0, 0x00, 0x00, 0xff, 0xc0, 0x00, 0x00, 
	0xff, 0xc0, 0x00, 0x00, 0xff, 0xc0, 0x00, 0x00, 0xff, 0xc0, 
	0x00, 0x00, 0xff, 0xc0, 0x00, 0x00, 0xff, 0xc0, 0x00, 0x00, 
	0xff, 0xc0, 0x00, 0x00, 0xff, 0xc0, 0x00, 0x00, 0xff, 0xc0, 
	0x00, 0x00, 0xef, 0xc0, 0x00, 0x00, 0x05, 0x80, 0x00, 0x00, 
	0x00, 0x00, 0x00, 0x00, 0x01, 0x40, 0x00, 0x00, 0x0f, 0xc0, 
	0x00, 0x00, 0xff, 0xc0, 0x00, 0x00, 0xff, 0xc0, 0x00, 0x00, 
	0xff, 0xc0, 0x00, 0x00, 0xff, 0xc0, 0x00, 0x00, 0xff, 0xc0, 
	0x00, 0x00, 0xf7, 0xc0, 0x00, 0x00, 0x7f, 0xc0, 0x00, 0x00, 
	0xff, 0xc0, 0x00, 0x00, 0xff, 0xc0, 0x00, 0x00, 0xfe, 0xc0, 
	0x00, 0x00, 0xff, 0xc0, 0x00, 0x00, 0xff, 0xc0, 0x00, 0x00, 
	0xff, 0xc0, 0x00, 0x00, 0xff, 0xc0, 0x00, 0x00, 0xff, 0xc0, 
	0x00, 0x00, 0xff, 0xc0, 0x00, 0x00, 0xff, 0xc0, 0x00, 0x00, 
	0xff, 0xc0, 0x00, 0x00, 0xfb, 0xc0, 0x00, 0x00, 0xff, 0x80, 
	0x00, 0x00, 0xff, 0xc0, 0x00, 0x00, 0xff, 0xc0, 0x00, 0x00, 
	0xff, 0xc0, 0x00, 0x00, 0xcf, 0x40, 0x00, 0x00, 0x06, 0x00, 
	0x00, 0x00, 0x00, 0x00, 0x00, 0x00, 0x09, 0x40, 0x00, 0x00, 
	0x0d, 0xc0, 0x00, 0x00, 0xff, 0xc0, 0x00, 0x00, 0xff, 0x80, 
	0x00, 0x00, 0xff, 0xc0, 0x00, 0x00, 0xff, 0xc0, 0x00, 0x00, 
	0xff, 0xc0, 0x00, 0x00, 0xff, 0xc0, 0x00, 0x00, 0xff, 0xc0, 
	0x00, 0x00, 0xff, 0xc0, 0x00, 0x00, 0xff, 0xc0, 0x00, 0x00, 
	0xff, 0xc0, 0x00, 0x00, 0xff, 0xc0, 0x00, 0x00, 0xff, 0xc0, 
	0x00, 0x00, 0xff, 0xc0, 0x00, 0x00, 0xff, 0xc0, 0x00, 0x00, 
	0xff, 0xc0, 0x00, 0x00, 0x7f, 0xc0, 0x00, 0x00, 0xff, 0xc0, 
	0x00, 0x00, 0xff, 0xc0, 0x00, 0x00, 0xff, 0xc0, 0x00, 0x00, 
	0xff, 0xc0, 0x00, 0x00, 0xff, 0xc0, 0x00, 0x00, 0xfd, 0xc0, 
	0x00, 0x00, 0xff, 0xc0, 0x00, 0x00, 0xef, 0xc0, 0x00, 0x00, 
	0x00, 0x00, 0x00, 0x00, 0x00, 0x00, 0x00, 0x00, 0x0d, 0x40, 
	0x00, 0x00, 0x1d, 0x40, 0x00, 0x00, 0xaf, 0x40, 0x00, 0x00, 
	0xbf, 0xc0, 0x00, 0x00, 0xff, 0xc0, 0x00, 0x00, 0xff, 0xc0, 
	0x00, 0x00, 0xff, 0xc0, 0x00, 0x00, 0xff, 0xc0, 0x00, 0x00, 
	0xff, 0xc0, 0x00, 0x00, 0xff, 0xc0, 0x00, 0x00, 0xff, 0xc0, 
	0x00, 0x00, 0xff, 0xc0, 0x00, 0x00, 0xff, 0xc0, 0x00, 0x00, 
	0xff, 0xc0, 0x00, 0x00, 0xff, 0xc0, 0x00, 0x00, 0xff, 0xc0, 
	0x00, 0x00, 0xff, 0xc0, 0x00, 0x00, 0xff, 0xc0, 0x00, 0x00, 
	0xf7, 0xc0, 0x00, 0x00, 0xff, 0xc0, 0x00, 0x00, 0xff, 0xc0, 
	0x00, 0x00, 0xff, 0xc0, 0x00, 0x00, 0xff, 0xc0, 0x00, 0x00, 
	0xff, 0xc0, 0x00, 0x00, 0xef, 0xc0, 0x00, 0x00, 0xe7, 0xc0, 
	0x00, 0x00, 0x20, 0x00, 0x00, 0x00, 0x00, 0x00, 0x00, 0x00, 
	0x09, 0x40, 0x00, 0x00, 0x09, 0x40, 0x00, 0x00, 0xab, 0x00, 
	0x00, 0x00, 0xbf, 0xc0, 0x00, 0x00, 0xff, 0xc0, 0x00, 0x00, 
	0xff, 0xc0, 0x00, 0x00, 0xff, 0xc0, 0x00, 0x00, 0xff, 0xc0, 
	0x00, 0x00, 0xff, 0xc0, 0x00, 0x00, 0xff, 0xc0, 0x00, 0x00, 
	0xff, 0xc0, 0x00, 0x00, 0xff, 0xc0, 0x00, 0x00, 0xff, 0xc0, 
	0x00, 0x00, 0xff, 0xc0, 0x00, 0x00, 0xff, 0xc0, 0x00, 0x00, 
	0xff, 0xc0, 0x00, 0x00, 0xff, 0xc0, 0x00, 0x00, 0xff, 0xc0, 
	0x00, 0x00, 0xff, 0xc0, 0x00, 0x00, 0xff, 0xc0, 0x00, 0x00, 
	0xff, 0xc0, 0x00, 0x00, 0xff, 0xc0, 0x00, 0x00, 0xff, 0xc0, 
	0x00, 0x00, 0xff, 0xc0, 0x00, 0x00, 0xff, 0x40, 0x00, 0x00, 
	0x6a, 0xc0, 0x00, 0x00, 0x2e, 0x00, 0x00, 0x00, 0x00, 0x00, 
	0x00, 0x00, 0x09, 0x00, 0x00, 0x00, 0x09, 0x40, 0x00, 0x00, 
	0xfb, 0xc0, 0x00, 0x00, 0xbf, 0xc0, 0x00, 0x00, 0xfd, 0xc0, 
	0x00, 0x00, 0xfb, 0xc0, 0x00, 0x00, 0xff, 0xc0, 0x00, 0x00, 
	0xff, 0xc0, 0x00, 0x00, 0xff, 0xc0, 0x00, 0x00, 0xff, 0xc0, 
	0x00, 0x00, 0xff, 0xc0, 0x00, 0x00, 0xff, 0xc0, 0x00, 0x00, 
	0xff, 0xc0, 0x00, 0x00, 0xff, 0xc0, 0x00, 0x00, 0xff, 0xc0, 
	0x00, 0x00, 0xff, 0xc0, 0x00, 0x00, 0xff, 0xc0, 0x00, 0x00, 
	0xff, 0xc0, 0x00, 0x00, 0xff, 0xc0, 0x00, 0x00, 0xff, 0xc0, 
	0x00, 0x00, 0xff, 0xc0, 0x00, 0x00, 0xff, 0xc0, 0x00, 0x00, 
	0xff, 0xc0, 0x00, 0x00, 0xff, 0xc0, 0x00, 0x00, 0xff, 0xc0, 
	0x00, 0x00, 0x2e, 0xc0, 0x00, 0x00, 0x00, 0x00, 0x00, 0x00, 
	0x00, 0x00, 0x00, 0x00, 0x30, 0x00, 0x00, 0x00, 0x11, 0x40, 
	0x00, 0x00, 0x9f, 0xc0, 0x00, 0x00, 0xff, 0xc0, 0x00, 0x00, 
	0xff, 0xc0, 0x00, 0x00, 0xff, 0xc0, 0x00, 0x00, 0xff, 0xc0, 
	0x00, 0x00, 0xff, 0xc0, 0x00, 0x00, 0xff, 0xc0, 0x00, 0x00, 
	0xff, 0x80, 0x00, 0x00, 0xff, 0xc0, 0x00, 0x00, 0xff, 0xc0, 
	0x00, 0x00, 0xff, 0xc0, 0x00, 0x00, 0xff, 0xc0, 0x00, 0x00, 
	0xff, 0xc0, 0x00, 0x00, 0xff, 0xc0, 0x00, 0x00, 0xff, 0xc0, 
	0x00, 0x00, 0xff, 0xc0, 0x00, 0x00, 0xfd, 0xc0, 0x00, 0x00, 
	0xff, 0xc0, 0x00, 0x00, 0xf7, 0xc0, 0x00, 0x00, 0xff, 0xc0, 
	0x00, 0x00, 0xff, 0xc0, 0x00, 0x00, 0xef, 0xc0, 0x00, 0x00, 
	0x7f, 0xc0, 0x00, 0x00, 0x7e, 0xc0, 0x00, 0x00, 0x22, 0x00, 
	0x00, 0x00, 0x00, 0x00, 0x00, 0x00, 0x10, 0x00, 0x00, 0x00, 
	0x30, 0x40, 0x00, 0x00, 0xba, 0xc0, 0x00, 0x00, 0xff, 0xc0, 
	0x00, 0x00, 0xff, 0x80, 0x00, 0x00, 0xff, 0xc0, 0x00, 0x00, 
	0xff, 0xc0, 0x00, 0x00, 0xff, 0xc0, 0x00, 0x00, 0xff, 0xc0, 
	0x00, 0x00, 0xff, 0xc0, 0x00, 0x00, 0xff, 0xc0, 0x00, 0x00, 
	0xbf, 0xc0, 0x00, 0x00, 0xff, 0xc0, 0x00, 0x00, 0xff, 0xc0, 
	0x00, 0x00, 0xdf, 0xc0, 0x00, 0x00, 0xff, 0xc0, 0x00, 0x00, 
	0xff, 0xc0, 0x00, 0x00, 0xff, 0xc0, 0x00, 0x00, 0xff, 0xc0, 
	0x00, 0x00, 0xff, 0xc0, 0x00, 0x00, 0xff, 0xc0, 0x00, 0x00, 
	0xff, 0xc0, 0x00, 0x00, 0xff, 0xc0, 0x00, 0x00, 0xff, 0xc0, 
	0x00, 0x00, 0xff, 0xc0, 0x00, 0x00, 0xfe, 0xc0, 0x00, 0x00, 
	0x26, 0x00, 0x00, 0x00, 0x00, 0x00, 0x00, 0x00, 0x00, 0x00, 
	0x00, 0x00, 0x34, 0x40, 0x00, 0x00, 0xbb, 0xc0, 0x00, 0x00, 
	0xff, 0xc0, 0x00, 0x00, 0xff, 0xc0, 0x00, 0x00, 0xff, 0xc0, 
	0x00, 0x00, 0xff, 0xc0, 0x00, 0x00, 0xff, 0xc0, 0x00, 0x00, 
	0xff, 0xc0, 0x00, 0x00, 0xff, 0xc0, 0x00, 0x00, 0xff, 0xc0, 
	0x00, 0x00, 0xff, 0xc0, 0x00, 0x00, 0xff, 0xc0, 0x00, 0x00, 
	0xff, 0xc0, 0x00, 0x00, 0xff, 0xc0, 0x00, 0x00, 0xff, 0xc0, 
	0x00, 0x00, 0xff, 0xc0, 0x00, 0x00, 0xff, 0xc0, 0x00, 0x00, 
	0xff, 0xc0, 0x00, 0x00, 0xff, 0xc0, 0x00, 0x00, 0xff, 0xc0, 
	0x00, 0x00, 0xfb, 0xc0, 0x00, 0x00, 0xfd, 0xc0, 0x00, 0x00, 
	0xff, 0xc0, 0x00, 0x00, 0xff, 0xc0, 0x00, 0x00, 0xff, 0xc0, 
	0x00, 0x00, 0xa2, 0x00, 0x00, 0x00, 0x00, 0x00, 0x00, 0x00, 
	0x00, 0x00, 0x00, 0x00, 0x34, 0x40, 0x00, 0x00, 0xfe, 0xc0, 
	0x00, 0x00, 0xff, 0xc0, 0x00, 0x00, 0xff, 0xc0, 0x00, 0x00, 
	0xff, 0xc0, 0x00, 0x00, 0xff, 0xc0, 0x00, 0x00, 0xff, 0xc0, 
	0x00, 0x00, 0xff, 0xc0, 0x00, 0x00, 0xff, 0xc0, 0x00, 0x00, 
	0xff, 0xc0, 0x00, 0x00, 0xff, 0xc0, 0x00, 0x00, 0xff, 0xc0, 
	0x00, 0x00, 0xff, 0xc0, 0x00, 0x00, 0xff, 0xc0, 0x00, 0x00, 
	0xff, 0xc0, 0x00, 0x00, 0xff, 0xc0, 0x00, 0x00, 0xff, 0xc0, 
	0x00, 0x00, 0xff, 0xc0, 0x00, 0x00, 0xff, 0xc0, 0x00, 0x00, 
	0xff, 0xc0, 0x00, 0x00, 0xff, 0xc0, 0x00, 0x00, 0xff, 0xc0, 
	0x00, 0x00, 0xff, 0xc0, 0x00, 0x00, 0xff, 0xc0, 0x00, 0x00, 
	0x3f, 0x80, 0x00, 0x00, 0x22, 0x00, 0x00, 0x00, 0x00, 0x00, 
	0x00, 0x00, 0x01, 0x00, 0x00, 0x00, 0x34, 0xc0, 0x00, 0x00, 
	0xff, 0xc0, 0x00, 0x00, 0xff, 0xc0, 0x00, 0x00, 0xff, 0xc0, 
	0x00, 0x00, 0xff, 0xc0, 0x00, 0x00, 0xff, 0xc0, 0x00, 0x00, 
	0xff, 0xc0, 0x00, 0x00, 0xff, 0xc0, 0x00, 0x00, 0xff, 0xc0, 
	0x00, 0x00, 0xff, 0xc0, 0x00, 0x00, 0xff, 0xc0, 0x00, 0x00, 
	0xff, 0xc0, 0x00, 0x00, 0xff, 0xc0, 0x00, 0x00, 0xff, 0xc0, 
	0x00, 0x00, 0xff, 0xc0, 0x00, 0x00, 0xfb, 0xc0, 0x00, 0x00, 
	0xff, 0xc0, 0x00, 0x00, 0xff, 0xc0, 0x00, 0x00, 0xff, 0xc0, 
	0x00, 0x00, 0xff, 0xc0, 0x00, 0x00, 0xff, 0xc0, 0x00, 0x00, 
	0xff, 0xc0, 0x00, 0x00, 0xff, 0xc0, 0x00, 0x00, 0xff, 0xc0, 
	0x00, 0x00, 0x26, 0x80, 0x00, 0x00, 0x20, 0x00, 0x00, 0x00, 
	0x00, 0x00, 0x00, 0x00, 0x80, 0x00, 0x00, 0x00, 0x10, 0xc0, 
	0x00, 0x00, 0xff, 0xc0, 0x00, 0x00, 0xff, 0xc0, 0x00, 0x00, 
	0xff, 0xc0, 0x00, 0x00, 0xff, 0xc0, 0x00, 0x00, 0xff, 0xc0, 
	0x00, 0x00, 0xff, 0xc0, 0x00, 0x00, 0xff, 0xc0, 0x00, 0x00, 
	0xff, 0xc0, 0x00, 0x00, 0xff, 0xc0, 0x00, 0x00, 0xbf, 0x40, 
	0x00, 0x00, 0xff, 0x40, 0x00, 0x00, 0x7f, 0xc0, 0x00, 0x00, 
	0xff, 0xc0, 0x00, 0x00, 0xff, 0xc0, 0x00, 0x00, 0xff, 0xc0, 
	0x00, 0x00, 0xff, 0xc0, 0x00, 0x00, 0xff, 0xc0, 0x00, 0x00, 
	0x7f, 0xc0, 0x00, 0x00, 0xff, 0xc0, 0x00, 0x00, 0xff, 0xc0, 
	0x00, 0x00, 0xff, 0xc0, 0x00, 0x00, 0xff, 0xc0, 0x00, 0x00, 
	0xbf, 0x80, 0x00, 0x00, 0x22, 0x80, 0x00, 0x00, 0x00, 0x00, 
	0x00, 0x00, 0x00, 0x00, 0x00, 0x00, 0x00, 0x00, 0x00, 0x00, 
	0x75, 0xc0, 0x00, 0x00, 0xfb, 0xc0, 0x00, 0x00, 0xff, 0xc0, 
	0x00, 0x00, 0xff, 0xc0, 0x00, 0x00, 0xff, 0xc0, 0x00, 0x00, 
	0xff, 0xc0, 0x00, 0x00, 0xff, 0xc0, 0x00, 0x00, 0xff, 0xc0, 
	0x00, 0x00, 0xff, 0xc0, 0x00, 0x00, 0xff, 0xc0, 0x00, 0x00, 
	0xff, 0xc0, 0x00, 0x00, 0xff, 0xc0, 0x00, 0x00, 0xff, 0x40, 
	0x00, 0x00, 0xff, 0xc0, 0x00, 0x00, 0xff, 0xc0, 0x00, 0x00, 
	0xff, 0xc0, 0x00, 0x00, 0xff, 0xc0, 0x00, 0x00, 0xff, 0xc0, 
	0x00, 0x00, 0xf7, 0xc0, 0x00, 0x00, 0xff, 0xc0, 0x00, 0x00, 
	0xff, 0xc0, 0x00, 0x00, 0xff, 0x80, 0x00, 0x00, 0xff, 0xc0, 
	0x00, 0x00, 0xbf, 0x80, 0x00, 0x00, 0xa0, 0x40, 0x00, 0x00, 
	0x00, 0x00, 0x00, 0x00, 0x00, 0x00, 0x00, 0x00, 0x00, 0x00, 
	0x00, 0x00, 0x75, 0xc0, 0x00, 0x00, 0xfb, 0xc0, 0x00, 0x00, 
	0xff, 0xc0, 0x00, 0x00, 0xff, 0xc0, 0x00, 0x00, 0xff, 0xc0, 
	0x00, 0x00, 0xfb, 0xc0, 0x00, 0x00, 0xff, 0xc0, 0x00, 0x00, 
	0xff, 0x40, 0x00, 0x00, 0xff, 0xc0, 0x00, 0x00, 0xff, 0xc0, 
	0x00, 0x00, 0xff, 0xc0, 0x00, 0x00, 0xff, 0xc0, 0x00, 0x00, 
	0xff, 0xc0, 0x00, 0x00, 0xff, 0xc0, 0x00, 0x00, 0xff, 0xc0, 
	0x00, 0x00, 0x7f, 0x40, 0x00, 0x00, 0xff, 0xc0, 0x00, 0x00, 
	0xff, 0xc0, 0x00, 0x00, 0xff, 0xc0, 0x00, 0x00, 0xff, 0xc0, 
	0x00, 0x00, 0xf7, 0xc0, 0x00, 0x00, 0xff, 0xc0, 0x00, 0x00, 
	0xff, 0xc0, 0x00, 0x00, 0x3f, 0x80, 0x00, 0x00, 0x24, 0x00, 
	0x00, 0x00, 0x00, 0x00, 0x00, 0x00, 0x00, 0x00, 0x00, 0x00, 
	0x00, 0x00, 0x00, 0x00, 0x11, 0x40, 0x00, 0x00, 0xfd, 0xc0, 
	0x00, 0x00, 0xff, 0xc0, 0x00, 0x00, 0xff, 0xc0, 0x00, 0x00, 
	0xff, 0xc0, 0x00, 0x00, 0xff, 0xc0, 0x00, 0x00, 0xff, 0xc0, 
	0x00, 0x00, 0xff, 0xc0, 0x00, 0x00, 0xff, 0xc0, 0x00, 0x00, 
	0xff, 0xc0, 0x00, 0x00, 0xff, 0xc0, 0x00, 0x00, 0xff, 0xc0, 
	0x00, 0x00, 0xfe, 0xc0, 0x00, 0x00, 0xff, 0xc0, 0x00, 0x00, 
	0xff, 0xc0, 0x00, 0x00, 0xfb, 0xc0, 0x00, 0x00, 0xff, 0xc0, 
	0x00, 0x00, 0xff, 0xc0, 0x00, 0x00, 0xff, 0xc0, 0x00, 0x00, 
	0xff, 0xc0, 0x00, 0x00, 0xf7, 0x40, 0x00, 0x00, 0xff, 0xc0, 
	0x00, 0x00, 0xff, 0xc0, 0x00, 0x00, 0x35, 0x80, 0x00, 0x00, 
	0x00, 0x00, 0x00, 0x00, 0x00, 0x00, 0x00, 0x00, 0x00, 0x00, 
	0x00, 0x00, 0x00, 0x00, 0x00, 0x00, 0x10, 0x00, 0x00, 0x00, 
	0x75, 0xc0, 0x00, 0x00, 0xfd, 0x80, 0x00, 0x00, 0xff, 0xc0, 
	0x00, 0x00, 0xff, 0xc0, 0x00, 0x00, 0xff, 0xc0, 0x00, 0x00, 
	0xff, 0xc0, 0x00, 0x00, 0xff, 0xc0, 0x00, 0x00, 0xff, 0x40, 
	0x00, 0x00, 0xff, 0xc0, 0x00, 0x00, 0xff, 0xc0, 0x00, 0x00, 
	0xff, 0xc0, 0x00, 0x00, 0x7f, 0xc0, 0x00, 0x00, 0xff, 0xc0, 
	0x00, 0x00, 0xff, 0xc0, 0x00, 0x00, 0xff, 0xc0, 0x00, 0x00, 
	0xff, 0xc0, 0x00, 0x00, 0xff, 0xc0, 0x00, 0x00, 0xfb, 0xc0, 
	0x00, 0x00, 0xdb, 0xc0, 0x00, 0x00, 0xdf, 0xc0, 0x00, 0x00, 
	0xff, 0xc0, 0x00, 0x00, 0x3d, 0x80, 0x00, 0x00, 0x21, 0x40, 
	0x00, 0x00, 0x20, 0x00, 0x00, 0x00, 0x00, 0x00, 0x00, 0x00, 
	0x00, 0x00, 0x00, 0x00, 0x00, 0x00, 0x00, 0x00, 0x00, 0x00, 
	0x00, 0x00, 0x25, 0x00, 0x00, 0x00, 0x75, 0xc0, 0x00, 0x00, 
	0xfd, 0xc0, 0x00, 0x00, 0xff, 0xc0, 0x00, 0x00, 0xff, 0xc0, 
	0x00, 0x00, 0xff, 0xc0, 0x00, 0x00, 0xff, 0xc0, 0x00, 0x00, 
	0xff, 0xc0, 0x00, 0x00, 0xff, 0xc0, 0x00, 0x00, 0xff, 0xc0, 
	0x00, 0x00, 0xff, 0xc0, 0x00, 0x00, 0xff, 0x40, 0x00, 0x00, 
	0xff, 0xc0, 0x00, 0x00, 0xff, 0xc0, 0x00, 0x00, 0xff, 0xc0, 
	0x00, 0x00, 0xff, 0xc0, 0x00, 0x00, 0xef, 0xc0, 0x00, 0x00, 
	0xff, 0x40, 0x00, 0x00, 0xbf, 0xc0, 0x00, 0x00, 0xbf, 0xc0, 
	0x00, 0x00, 0xad, 0xc0, 0x00, 0x00, 0x0c, 0x00, 0x00, 0x00, 
	0x20, 0x00, 0x00, 0x00, 0x20, 0x00, 0x00, 0x00, 0x00, 0x00, 
	0x00, 0x00, 0x00, 0x00, 0x00, 0x00, 0x00, 0x00, 0x00, 0x00, 
	0x00, 0x00, 0x00, 0x00, 0x00, 0x00, 0x00, 0x00, 0x01, 0xc0, 
	0x00, 0x00, 0x05, 0xc0, 0x00, 0x00, 0xbd, 0xc0, 0x00, 0x00, 
	0xfd, 0xc0, 0x00, 0x00, 0xff, 0xc0, 0x00, 0x00, 0xef, 0xc0, 
	0x00, 0x00, 0xeb, 0xc0, 0x00, 0x00, 0xef, 0xc0, 0x00, 0x00, 
	0xff, 0xc0, 0x00, 0x00, 0xfb, 0xc0, 0x00, 0x00, 0xff, 0xc0, 
	0x00, 0x00, 0xff, 0xc0, 0x00, 0x00, 0xef, 0xc0, 0x00, 0x00, 
	0xff, 0xc0, 0x00, 0x00, 0xff, 0xc0, 0x00, 0x00, 0xff, 0xc0, 
	0x00, 0x00, 0xbb, 0xc0, 0x00, 0x00, 0xbd, 0xc0, 0x00, 0x00, 
	0x89, 0x40, 0x00, 0x00, 0x00, 0x00, 0x00, 0x00, 0x00, 0x00, 
	0x00, 0x00, 0x00, 0x00, 0x00, 0x00, 0x00, 0x00, 0x00, 0x00, 
	0x00, 0x00, 0x00, 0x00, 0x00, 0x00, 0x00, 0x00, 0x00, 0x00, 
	0x00, 0x00, 0x00, 0x00, 0x00, 0x00, 0x00, 0x00, 0x00, 0x00, 
	0x00, 0x00, 0x00, 0x00, 0x00, 0x00, 0x00, 0x00, 0x00, 0x00, 
	0x00, 0x00, 0x08, 0x40, 0x00, 0x00, 0x09, 0x40, 0x00, 0x00, 
	0x09, 0x40, 0x00, 0x00, 0x09, 0x80, 0x00, 0x00, 0x0d, 0x00, 
	0x00, 0x00, 0x0d, 0x00, 0x00, 0x00, 0x09, 0x40, 0x00, 0x00, 
	0x8d, 0x00, 0x00, 0x00, 0x8d, 0x40, 0x00, 0x00, 0x8d, 0x40, 
	0x00, 0x00, 0x0d, 0x40, 0x00, 0x00, 0x0d, 0x40, 0x00, 0x00, 
	0x09, 0x40, 0x00, 0x00, 0x09, 0x40, 0x00, 0x00, 0x00, 0x40, 
	0x00, 0x00, 0x81, 0x40, 0x00, 0x00, 0x00, 0x00, 0x00, 0x00, 
	0x00, 0x00, 0x00, 0x00, 0x00, 0x00, 0x00, 0x00, 0x00, 0x00, 
	0x00, 0x00, 0x00, 0x00, 0x00, 0x00, 0x00, 0x00, 0x00, 0x00, 
	0x00, 0x00, 0x00, 0x00, 0x00, 0x00, 0x00, 0x00, 0x00, 0x00, 
	0x00, 0x00, 0x00, 0x00, 0x00, 0x00, 0x00, 0x00, 0x00, 0x00, 
	0x00, 0x00, 0x00, 0x00, 0x00, 0x00, 0x00, 0x00, 0x00, 0x00, 
	0x00, 0x00, 0x00, 0x00, 0x00, 0x00, 0x00, 0x00, 0x00, 0x00, 
	0x00, 0x00, 0x00, 0x00, 0x00, 0x00, 0x00, 0x00, 0x00, 0x00, 
	0x00, 0x00, 0x00, 0x00, 0x00, 0x00, 0x00, 0x00, 0x00, 0x00, 
	0x7b, 0x79, 0x7b, 0x78, 0x7d, 0x77, 0x7d, 0x79, 0x7c, 0x79, 
	0x77, 0x7f, 0x7b, 0x79, 0x76, 0x80, 0x7b, 0x79, 0x74, 0x81, 
	0x79, 0x79, 0x7b, 0x79, 0x77, 0x7f, 0x7b, 0x78, 0x7d, 0x7c, 
	0x77, 0x7d, 0x79, 0x7b, 0x7d, 0x77, 0x7c, 0x79, 0x7b, 0x78, 
	0x7c, 0x79, 0x79, 0x79, 0x7c, 0x79, 0x79, 0x7c, 0x79, 0x7c, 
	0x79, 0x7c, 0x79, 0x7b, 0x79, 0x7c, 0x76, 0x80, 0x79, 0x79, 
	0x74, 0x83, 0x79, 0x78, 0x7c, 0x79, 0x74, 0x79, 0x84, 0x79, 
	0x78, 0x78, 0x7c, 0x6e, 0x78, 0x8d, 0x79, 0x79, 0x79, 0x78, 
	0x78, 0x7f, 0x7b, 0x6c, 0x77, 0x90, 0x78, 0x78, 0x79, 0x77, 
	0x7d, 0x7b, 0x66, 0x76, 0x97, 0x78, 0x77, 0x78, 0x76, 0x7e, 
	0x7c, 0x69, 0x75, 0x94, 0x79, 0x76, 0x78, 0x74, 0x80, 0x7e, 
	0x6d, 0x75, 0x91, 0x78, 0x76, 0x78, 0x74, 0x84, 0x80, 0x79, 
	0x6c, 0x76, 0x8d, 0x78, 0x76, 0x77, 0x74, 0x80, 0x7e, 0x6c, 
	0x79, 0x8e, 0x79, 0x76, 0x77, 0x76, 0x7b, 0x72, 0x7b, 0x8b, 
	0x79, 0x77, 0x78, 0x76, 0x79, 0x77, 0x79, 0x74, 0x7c, 0x8a, 
	0x78, 0x79, 0x76, 0x74, 0x79, 0x77, 0x7c, 0x8b, 0x78, 0x79, 
	0x77, 0x79, 0x76, 0x79, 0x78, 0x79, 0x89, 0x79, 0x79, 0x79, 
	0x79, 0x77, 0x79, 0x79, 0x79, 0x84, 0x79, 0x79, 0x77, 0x79, 
	0x79, 0x81, 0x79, 0x79, 0x79, 0x79, 0x7e, 0x7b, 0x7b, 0x79, 
	0x78, 0x7b, 0x7d, 0x79, 0x77, 0x7b, 0x7c, 0x78, 0x79, 0x7d, 
	0x77, 0x79, 0x7e, 0x7e, 0x75, 0x78, 0x81, 0x79, 0x79, 0x79, 
	0x76, 0x83, 0x7f, 0x6f, 0x77, 0x85, 0x78, 0x78, 0x79, 0x76, 
	0x74, 0x90, 0x7d, 0x69, 0x75, 0x89, 0x77, 0x77, 0x78, 0x76, 
	0x71, 0x94, 0x81, 0x64, 0x74, 0x90, 0x75, 0x75, 0x77, 0x76, 
	0x6e, 0x99, 0x8c, 0x5f, 0x71, 0x91, 0x73, 0x72, 0x76, 0x73, 
	0x71, 0x9e, 0x95, 0x56, 0x70, 0x8f, 0x74, 0x6f, 0x74, 0x76, 
	0x76, 0x9f, 0x93, 0x52, 0x6f, 0x93, 0x74, 0x6d, 0x71, 0x73, 
	0x78, 0x95, 0x9d, 0x58, 0x70, 0x94, 0x73, 0x69, 0x6f, 0x70, 
	0x7e, 0x8c, 0x99, 0x5b, 0x78, 0x92, 0x74, 0x6a, 0x6e, 0x70, 
	0x7d, 0x8b, 0x92, 0x5f, 0x93, 0x75, 0x6a, 0x6f, 0x6d, 0x74, 
	0x81, 0x90, 0x66, 0x81, 0x97, 0x76, 0x6d, 0x72, 0x68, 0x6f, 
	0x71, 0x8e, 0x6c, 0x88, 0x9d, 0x76, 0x72, 0x75, 0x68, 0x70, 
	0x6d, 0x88, 0x76, 0x85, 0xa0, 0x78, 0x6f, 0x76, 0x6c, 0x70, 
	0x6b, 0x83, 0x84, 0x9b, 0x78, 0x72, 0x77, 0x71, 0x73, 0x6e, 
	0x77, 0x82, 0x98, 0x79, 0x76, 0x78, 0x73, 0x75, 0x6f, 0x75, 
	0x7f, 0x93, 0x79, 0x79, 0x76, 0x77, 0x72, 0x78, 0x7b, 0x78, 
	0x8c, 0x7b, 0x78, 0x78, 0x78, 0x79, 0x79, 0x79, 0x83, 0x7b, 
	0x79, 0x7b, 0x7b, 0x79, 0x7c, 0x7b, 0x78, 0x77, 0x7b, 0x7c, 
	0x84, 0x7c, 0x73, 0x79, 0x79, 0x78, 0x75, 0x81, 0x8a, 0x79, 
	0x70, 0x79, 0x76, 0x79, 0x77, 0x76, 0x84, 0x91, 0x76, 0x6d, 
	0x7c, 0x77, 0x76, 0x78, 0x78, 0x73, 0x8c, 0x9c, 0x6d, 0x63, 
	0x82, 0x74, 0x76, 0x76, 0x79, 0x73, 0x9d, 0xa1, 0x64, 0x60, 
	0x81, 0x6f, 0x75, 0x72, 0x75, 0x74, 0xa4, 0xa8, 0x5a, 0x63, 
	0x81, 0x6b, 0x77, 0x6e, 0x76, 0x72, 0xa9, 0xad, 0x56, 0x6a, 
	0x78, 0x68, 0x7c, 0x6a, 0x72, 0x7d, 0xac, 0xa9, 0x53, 0x67, 
	0x75, 0x66, 0x89, 0x63, 0x78, 0x8d, 0x9f, 0xa7, 0x55, 0x61, 
	0x74, 0x62, 0x8e, 0x5f, 0x74, 0x94, 0x9a, 0xa0, 0x53, 0x6e, 
	0x72, 0x5e, 0x9a, 0x57, 0x77, 0x90, 0x93, 0x98, 0x52, 0x88, 
	0x75, 0x5f, 0x92, 0x53, 0x70, 0x88, 0x91, 0x97, 0x5e, 0x8a, 
	0x87, 0x60, 0x83, 0x53, 0x74, 0x7d, 0x88, 0x8d, 0x67, 0x8b, 
	0x96, 0x64, 0x76, 0x5c, 0x72, 0x77, 0x7c, 0x8c, 0x6f, 0x90, 
	0x99, 0x69, 0x71, 0x61, 0x70, 0x80, 0x6b, 0x81, 0x7f, 0x7f, 
	0xa2, 0x6d, 0x74, 0x66, 0x71, 0x87, 0x68, 0x72, 0x84, 0x75, 
	0xa5, 0x70, 0x78, 0x6b, 0x71, 0x8a, 0x62, 0x68, 0x85, 0x86, 
	0xa5, 0x74, 0x6d, 0x6e, 0x71, 0x85, 0x62, 0x6b, 0x87, 0x8a, 
	0x9f, 0x76, 0x69, 0x73, 0x71, 0x7d, 0x68, 0x6c, 0x85, 0x8c, 
	0x94, 0x78, 0x6e, 0x77, 0x73, 0x75, 0x71, 0x77, 0x80, 0x87, 
	0x83, 0x79, 0x77, 0x79, 0x78, 0x77, 0x79, 0x7b, 0x7e, 0x7c, 
	0x7b, 0x7d, 0x79, 0x79, 0x79, 0x79, 0x84, 0x7b, 0x73, 0x78, 
	0x79, 0x74, 0x7c, 0x7d, 0x90, 0x7e, 0x6d, 0x75, 0x7c, 0x74, 
	0x77, 0x73, 0x77, 0x85, 0x9d, 0x7f, 0x65, 0x76, 0x7b, 0x71, 
	0x73, 0x71, 0x6f, 0x8f, 0xa0, 0x7d, 0x68, 0x76, 0x79, 0x71, 
	0x6f, 0x71, 0x66, 0x9c, 0xa0, 0x76, 0x68, 0x7d, 0x78, 0x73, 
	0x6b, 0x71, 0x65, 0xa3, 0xa1, 0x73, 0x71, 0x79, 0x72, 0x77, 
	0x64, 0x79, 0x6a, 0xaa, 0x9c, 0x66, 0x7b, 0x77, 0x67, 0x73, 
	0x69, 0x7d, 0x70, 0xac, 0x96, 0x63, 0x7f, 0x5e, 0x5c, 0x86, 
	0x73, 0x7f, 0x7d, 0xa6, 0x8a, 0x5f, 0x62, 0x54, 0x95, 0x74, 
	0x90, 0x8a, 0xa2, 0x86, 0x57, 0x72, 0x60, 0x4c, 0x96, 0x78, 
	0x97, 0x90, 0x9f, 0x81, 0x62, 0x6a, 0x6e, 0x43, 0x97, 0x69, 
	0x97, 0x8d, 0xa3, 0x8d, 0x6a, 0x6c, 0x6d, 0x3f, 0x92, 0x5b, 
	0x95, 0x79, 0xab, 0x92, 0x77, 0x7b, 0x70, 0x44, 0x91, 0x43, 
	0xa0, 0x6d, 0xa6, 0x7c, 0x78, 0x84, 0x79, 0x47, 0x98, 0x42, 
	0x97, 0x74, 0x94, 0x86, 0x84, 0x8b, 0x4b, 0x84, 0x47, 0x87, 
	0x82, 0x7c, 0x77, 0x8c, 0x7d, 0x96, 0x51, 0x88, 0x50, 0x7d, 
	0x91, 0x6f, 0x6e, 0x88, 0x88, 0x94, 0x57, 0x85, 0x59, 0x7f, 
	0x9b, 0x6e, 0x5f, 0x8c, 0x8a, 0x8f, 0x63, 0x79, 0x5d, 0x78, 
	0x97, 0x67, 0x59, 0x98, 0x9b, 0x8c, 0x6a, 0x6b, 0x61, 0x6d, 
	0x8a, 0x64, 0x5e, 0x9d, 0xa0, 0x8c, 0x71, 0x69, 0x69, 0x6d, 
	0x7d, 0x6c, 0x70, 0x89, 0x9a, 0x82, 0x77, 0x71, 0x72, 0x74, 
	0x75, 0x77, 0x78, 0x7b, 0x89, 0x79, 0x7c, 0x78, 0x79, 0x79, 
	0x79, 0x79, 0x7e, 0x7b, 0x7b, 0x7b, 0x7b, 0x80, 0x79, 0x76, 
	0x78, 0x7d, 0x78, 0x79, 0x78, 0x7d, 0x8c, 0x7c, 0x6d, 0x79, 
	0x7b, 0x76, 0x76, 0x74, 0x77, 0x83, 0x9a, 0x82, 0x69, 0x73, 
	0x80, 0x71, 0x6d, 0x71, 0x71, 0x8d, 0xa1, 0x85, 0x68, 0x70, 
	0x87, 0x6d, 0x64, 0x70, 0x68, 0x95, 0x93, 0x84, 0x72, 0x76, 
	0x8b, 0x72, 0x5c, 0x6d, 0x5e, 0x96, 0x97, 0x77, 0x79, 0x76, 
	0x90, 0x5d, 0x68, 0x57, 0x9d, 0x9b, 0x73, 0x7f, 0x70, 0x89, 
	0x7c, 0x66, 0x79, 0x60, 0x97, 0x99, 0x6b, 0x86, 0x63, 0x88, 
	0x72, 0x6d, 0x80, 0x6b, 0x8c, 0x8d, 0x5c, 0x84, 0x5c, 0x84, 
	0x7f, 0x81, 0x84, 0x6c, 0x8a, 0x8b, 0x54, 0x7f, 0x63, 0x73, 
	0x8a, 0x8d, 0x90, 0x6f, 0x8e, 0x97, 0x4b, 0x79, 0x5e, 0x5f, 
	0x7d, 0xa2, 0x92, 0x6c, 0x8b, 0x94, 0x45, 0x83, 0x5f, 0x5d, 
	0x7d, 0xa6, 0x8e, 0x5d, 0x89, 0x98, 0x46, 0x73, 0x69, 0x65, 
	0x99, 0x97, 0x94, 0x59, 0x8d, 0x9c, 0x50, 0x73, 0x5f, 0x67, 
	0x90, 0x96, 0x9f, 0x57, 0x89, 0x8c, 0x5e, 0x7d, 0x62, 0x6a, 
	0x84, 0x8f, 0xa1, 0x68, 0x82, 0x92, 0x65, 0x84, 0x65, 0x61, 
	0x70, 0x89, 0x90, 0x72, 0x76, 0x77, 0x8c, 0x6d, 0x65, 0x87, 
	0x76, 0x8c, 0x87, 0x6e, 0x7b, 0x75, 0x8d, 0x71, 0x68, 0x83, 
	0x6b, 0x93, 0x8b, 0x6d, 0x71, 0x89, 0x89, 0x70, 0x6c, 0x60, 
	0x8f, 0x88, 0x67, 0x5c, 0xa6, 0x9e, 0x70, 0x6a, 0x79, 0x54, 
	0x77, 0x81, 0x5b, 0x5b, 0xaa, 0xb4, 0x73, 0x6b, 0x82, 0x58, 
	0x65, 0x77, 0x6a, 0x6b, 0x8c, 0xbe, 0x75, 0x72, 0x7b, 0x67, 
	0x6c, 0x74, 0x76, 0x76, 0x7b, 0x9e, 0x76, 0x76, 0x7f, 0x73, 
	0x75, 0x79, 0x79, 0x79, 0x7c, 0x85, 0x78, 0x79, 0x78, 0x79, 
	0x7c, 0x7b, 0x7b, 0x79, 0x7c, 0x79, 0x7b, 0x82, 0x73, 0x78, 
	0x81, 0x78, 0x76, 0x76, 0x79, 0x83, 0x98, 0x7d, 0x61, 0x78, 
	0x7f, 0x77, 0x6e, 0x74, 0x72, 0x88, 0xa5, 0x84, 0x5f, 0x72, 
	0x88, 0x74, 0x60, 0x72, 0x6a, 0x97, 0x97, 0x81, 0x67, 0x6b, 
	0x93, 0x7b, 0x59, 0x70, 0x63, 0x91, 0x85, 0x80, 0x71, 0x9b, 
	0x84, 0x53, 0x68, 0x55, 0x90, 0x82, 0x73, 0x8b, 0x70, 0x9f, 
	0x89, 0x60, 0x72, 0x53, 0x8a, 0x84, 0x6d, 0x8b, 0x6b, 0xa4, 
	0x7c, 0x6e, 0x7f, 0x57, 0x80, 0x80, 0x61, 0x95, 0x60, 0xa7, 
	0x7c, 0x77, 0x86, 0x5c, 0x83, 0x83, 0x52, 0x92, 0x60, 0xa3, 
	0x6e, 0x88, 0x86, 0x65, 0x81, 0x89, 0x3f, 0x84, 0x5e, 0x9b, 
	0x75, 0x9f, 0x88, 0x66, 0x87, 0x8d, 0x45, 0x78, 0x56, 0x89, 
	0x73, 0xb4, 0x8a, 0x61, 0x82, 0x99, 0x32, 0x82, 0x5f, 0x75, 
	0x66, 0xd0, 0x8b, 0x52, 0x79, 0x9f, 0x2a, 0x6f, 0x5d, 0x7d, 
	0x82, 0xd9, 0x93, 0x58, 0x77, 0x8c, 0x33, 0x80, 0x52, 0x8b, 
	0x7b, 0xcc, 0x9e, 0x5e, 0x66, 0x8e, 0x4e, 0x89, 0x52, 0x98, 
	0x6f, 0xa5, 0x9d, 0x60, 0x6e, 0x86, 0x55, 0x87, 0x4c, 0x99, 
	0x7f, 0x94, 0x90, 0x71, 0x76, 0x87, 0x66, 0x8c, 0x48, 0x8f, 
	0x77, 0x87, 0x85, 0x7c, 0x70, 0x87, 0x69, 0x88, 0x50, 0x8d, 
	0x83, 0x7c, 0x8a, 0x79, 0x76, 0x76, 0x7f, 0x8d, 0x52, 0x80, 
	0x88, 0x6f, 0x92, 0x77, 0x75, 0x65, 0x99, 0x99, 0x56, 0x79, 
	0x87, 0x59, 0x87, 0x6e, 0x59, 0x59, 0x9d, 0xbc, 0x60, 0x73, 
	0x9b, 0x55, 0x6a, 0x69, 0x63, 0x65, 0x85, 0xd3, 0x6f, 0x71, 
	0x91, 0x61, 0x69, 0x70, 0x74, 0x75, 0x79, 0xb8, 0x73, 0x73, 
	0x7c, 0x6f, 0x74, 0x79, 0x79, 0x7b, 0x89, 0x78, 0x79, 0x77, 
	0x7c, 0x7c, 0x79, 0x7b, 0x79, 0x80, 0x79, 0x76, 0x79, 0x7b, 
	0x83, 0x79, 0x71, 0x78, 0x8a, 0x79, 0x6f, 0x73, 0x78, 0x85, 
	0x9b, 0x7b, 0x59, 0x76, 0x8e, 0x66, 0x70, 0x73, 0x89, 0x9c, 
	0x81, 0x5a, 0x6d, 0x93, 0x81, 0x60, 0x71, 0x69, 0x8e, 0x8d, 
	0x65, 0x66, 0x98, 0x90, 0x63, 0x6f, 0x62, 0x8d, 0x81, 0x79, 
	0x72, 0x6b, 0xa3, 0x92, 0x5b, 0x6e, 0x54, 0x8a, 0x80, 0x6b, 
	0x89, 0x6c, 0x9a, 0x8a, 0x76, 0x7b, 0x4c, 0x8a, 0x7f, 0x76, 
	0x86, 0x69, 0x95, 0x8e, 0x6d, 0x81, 0x50, 0x98, 0x80, 0x63, 
	0x8d, 0x60, 0x9a, 0x81, 0x72, 0x83, 0x59, 0x90, 0x79, 0x5b, 
	0x95, 0x61, 0xa6, 0x70, 0x8b, 0x67, 0x83, 0x7c, 0x53, 0x83, 
	0x59, 0xa7, 0x8c, 0x70, 0x85, 0x76, 0x80, 0x81, 0x51, 0x75, 
	0x56, 0x94, 0x88, 0x8f, 0x91, 0x76, 0x88, 0x97, 0x2f, 0x6c, 
	0x51, 0x9a, 0x67, 0xb1, 0x9d, 0x78, 0x86, 0x9a, 0x28, 0x62, 
	0x47, 0xa1, 0x6e, 0xaf, 0xb0, 0x6c, 0x7b, 0x8e, 0x3b, 0x68, 
	0x44, 0xa5, 0x7e, 0x96, 0xac, 0x77, 0x73, 0x91, 0x58, 0x70, 
	0x3c, 0xa8, 0x76, 0x7c, 0x9f, 0x6c, 0x6f, 0x97, 0x69, 0x72, 
	0x2b, 0xad, 0x7f, 0x81, 0x91, 0x6c, 0x85, 0x8e, 0x6a, 0x82, 
	0x2f, 0x9b, 0x86, 0x78, 0x8a, 0x68, 0x78, 0x95, 0x69, 0x8f, 
	0x3d, 0x97, 0x83, 0x76, 0x88, 0x64, 0x79, 0x87, 0x76, 0x90, 
	0x47, 0x86, 0x8c, 0x7b, 0x98, 0x5e, 0x74, 0x79, 0x81, 0x9a, 
	0x49, 0x83, 0x97, 0x63, 0x9a, 0x58, 0x65, 0x56, 0x84, 0xcd, 
	0x53, 0x77, 0xa2, 0x5a, 0x75, 0x5d, 0x60, 0x62, 0xef, 0x63, 
	0x6d, 0x95, 0x63, 0x69, 0x6e, 0x71, 0x74, 0x77, 0xc9, 0x6f, 
	0x71, 0x6f, 0x75, 0x79, 0x79, 0x78, 0x8d, 0x75, 0x78, 0x7c, 
	0x77, 0x7b, 0x7d, 0x78, 0x7b, 0x79, 0x79, 0x82, 0x78, 0x75, 
	0x79, 0x7d, 0x83, 0x73, 0x70, 0x76, 0x92, 0x79, 0x6d, 0x74, 
	0x77, 0x83, 0x98, 0x72, 0x5e, 0x75, 0x99, 0x7f, 0x61, 0x71, 
	0x70, 0x8e, 0x8d, 0x77, 0x60, 0x6a, 0x97, 0x89, 0x68, 0x70, 
	0x69, 0x85, 0x84, 0x70, 0x6f, 0x67, 0x8e, 0x93, 0x7b, 0x6f, 
	0x66, 0x7b, 0x7e, 0x70, 0x80, 0x71, 0x89, 0x95, 0x79, 0x71, 
	0x5a, 0x74, 0x75, 0x71, 0x95, 0x74, 0x82, 0x95, 0x80, 0x7d, 
	0x52, 0x83, 0x6a, 0x77, 0x91, 0x69, 0x86, 0x9a, 0x78, 0x83, 
	0x56, 0x93, 0x58, 0x6a, 0x9a, 0x65, 0x89, 0x8d, 0x81, 0x7b, 
	0x64, 0x89, 0x44, 0x6d, 0xaa, 0x63, 0x91, 0x8e, 0x7f, 0x82, 
	0x6b, 0x7f, 0x4b, 0x6e, 0x9d, 0x5d, 0x9c, 0x87, 0x81, 0x8f, 
	0x83, 0x80, 0x6b, 0x58, 0x80, 0x56, 0x98, 0x7b, 0x87, 0x89, 
	0x98, 0x8b, 0x9c, 0x22, 0x5f, 0x5d, 0xa9, 0x5f, 0x98, 0x85, 
	0xaa, 0x93, 0xaf, 0x35, 0x45, 0x49, 0xb0, 0x4b, 0x95, 0x9a, 
	0x8e, 0x8f, 0xa6, 0x67, 0x40, 0x33, 0xb6, 0x61, 0x77, 0xa8, 
	0x78, 0x80, 0x9d, 0x79, 0x4f, 0x24, 0xb8, 0x75, 0x6f, 0xa5, 
	0x6b, 0x84, 0x94, 0x79, 0x61, 0x24, 0xaa, 0x79, 0x7b, 0x9f, 
	0x5d, 0x80, 0x95, 0x6c, 0x73, 0x30, 0xa7, 0x89, 0x75, 0x8d, 
	0x56, 0x76, 0xa1, 0x6d, 0x85, 0x40, 0x99, 0x88, 0x77, 0x87, 
	0x53, 0x73, 0x94, 0x72, 0x97, 0x4b, 0x95, 0x8f, 0x6b, 0x95, 
	0x50, 0x76, 0x80, 0x70, 0xa6, 0x4a, 0x88, 0x9c, 0x65, 0xa5, 
	0x53, 0x64, 0x63, 0x6d, 0xd2, 0x58, 0x70, 0xa0, 0x5e, 0x83, 
	0x60, 0x61, 0x66, 0x63, 0xff, 0x61, 0x6d, 0x87, 0x64, 0x69, 
	0x6f, 0x72, 0x76, 0x6b, 0xd7, 0x69, 0x74, 0x75, 0x70, 0x75, 
	0x79, 0x79, 0x76, 0x8e, 0x75, 0x79, 0x7b, 0x77, 0x7c, 0x7b, 
	0x79, 0x7d, 0x78, 0x78, 0x79, 0x79, 0x85, 0x79, 0x74, 0x78, 
	0x79, 0x7e, 0x85, 0x72, 0x72, 0x76, 0x92, 0x77, 0x6e, 0x74, 
	0x77, 0x79, 0x86, 0x71, 0x6c, 0x73, 0x9a, 0x86, 0x69, 0x72, 
	0x70, 0x82, 0x77, 0x6e, 0x70, 0x6c, 0x99, 0x8a, 0x7c, 0x71, 
	0x68, 0x7f, 0x6d, 0x6b, 0x80, 0x6e, 0x85, 0x93, 0x8f, 0x73, 
	0x66, 0x64, 0x61, 0x77, 0x93, 0x7b, 0x7d, 0x9c, 0x88, 0x73, 
	0x61, 0x65, 0x4a, 0xa3, 0x7e, 0x70, 0xa0, 0x96, 0x5a, 0x62, 
	0x3a, 0x89, 0xab, 0x71, 0x7e, 0xa5, 0x8d, 0x74, 0x5f, 0x63, 
	0x31, 0x86, 0xa3, 0x74, 0x86, 0xa6, 0x94, 0x7b, 0x69, 0x5f, 
	0x2c, 0x85, 0xac, 0x6e, 0x7c, 0x9d, 0x9c, 0x7f, 0x75, 0x56, 
	0x3b, 0x8c, 0xb0, 0x65, 0x91, 0x94, 0x84, 0x96, 0x4e, 0x7b, 
	0x56, 0x97, 0x6a, 0x99, 0x85, 0x6e, 0x75, 0xbf, 0x65, 0xa4, 
	0x19, 0x7e, 0x5b, 0xad, 0x72, 0x75, 0x64, 0xce, 0x6e, 0xa9, 
	0x55, 0x64, 0x3e, 0xc6, 0x52, 0x6e, 0x71, 0x9b, 0x7f, 0xa8, 
	0x7f, 0x54, 0x31, 0xd2, 0x4a, 0x71, 0x90, 0x79, 0x85, 0xa0, 
	0x87, 0x47, 0x31, 0xbc, 0x5d, 0x7d, 0x98, 0x61, 0x87, 0x9a, 
	0x75, 0x4c, 0x38, 0xb2, 0x80, 0x7f, 0x96, 0x59, 0x7e, 0x9c, 
	0x72, 0x55, 0x3e, 0xaa, 0x8f, 0x7d, 0x90, 0x4f, 0x77, 0xa2, 
	0x63, 0x6b, 0x52, 0xa4, 0x83, 0x86, 0x8a, 0x51, 0x72, 0x8b, 
	0x66, 0x5a, 0xa1, 0x90, 0x82, 0xa0, 0x56, 0x72, 0x75, 0x62, 
	0x85, 0x5d, 0x8b, 0x9e, 0xad, 0x5c, 0x67, 0x6a, 0x59, 0xb1, 
	0x6d, 0x6e, 0x9c, 0x6a, 0x8d, 0x66, 0x69, 0x6c, 0x5e, 0xe2, 
	0x69, 0x6d, 0x81, 0x66, 0x6b, 0x73, 0x76, 0x77, 0x69, 0xcf, 
	0x69, 0x76, 0x72, 0x71, 0x75, 0x78, 0x76, 0x8f, 0x74, 0x79, 
	0x77, 0x7b, 0x79, 0x79, 0x7f, 0x78, 0x74, 0x79, 0x8c, 0x79, 
	0x72, 0x78, 0x79, 0x79, 0x82, 0x73, 0x73, 0x77, 0x95, 0x78, 
	0x6f, 0x6f, 0x78, 0x71, 0x7d, 0x6e, 0x74, 0x75, 0x9c, 0x83, 
	0x70, 0x74, 0x68, 0x66, 0x6e, 0x7d, 0x74, 0x8d, 0x90, 0x96, 
	0x77, 0x6b, 0x53, 0x54, 0x77, 0x91, 0x77, 0x81, 0x9a, 0xa0, 
	0x7b, 0x68, 0x40, 0x41, 0x82, 0x93, 0x87, 0x85, 0xa8, 0x97, 
	0x74, 0x64, 0x3c, 0x35, 0x91, 0x98, 0x83, 0x7c, 0xaa, 0xa9, 
	0x72, 0x5b, 0x34, 0x3b, 0xa0, 0x98, 0x84, 0x88, 0xaa, 0x9a, 
	0x71, 0x59, 0x23, 0x47, 0xa9, 0x9a, 0x82, 0x8c, 0x9b, 0xa3, 
	0x76, 0x58, 0x22, 0x55, 0xa7, 0xa3, 0x7e, 0x84, 0x94, 0x9f, 
	0x74, 0x6e, 0x19, 0x69, 0xa0, 0xb4, 0x87, 0x77, 0x97, 0x79, 
	0x70, 0xa0, 0x16, 0x92, 0x3f, 0xb9, 0x83, 0x82, 0xa4, 0x6b, 
	0x4a, 0xe1, 0x2e, 0x9c, 0x23, 0x90, 0x5b, 0x98, 0xaa, 0x7f, 
	0x32, 0xdd, 0x47, 0x9e, 0x75, 0x6f, 0x38, 0xb8, 0x73, 0x8a, 
	0x3a, 0x9b, 0x63, 0x92, 0xa7, 0x59, 0x49, 0xc7, 0x5b, 0x8f, 
	0x63, 0x73, 0x66, 0x9d, 0x90, 0x4f, 0x4d, 0xba, 0x61, 0xa4, 
	0x68, 0x75, 0x98, 0x73, 0x4d, 0x52, 0xb0, 0x6f, 0xa4, 0x8b, 
	0x5d, 0x84, 0x95, 0x6b, 0x3a, 0x58, 0x9c, 0x83, 0xa6, 0x8c, 
	0x5c, 0x75, 0x96, 0x62, 0x30, 0x69, 0x9a, 0x87, 0xb6, 0x90, 
	0x62, 0x74, 0x72, 0x65, 0x37, 0x7b, 0x96, 0x96, 0xaa, 0xa3, 
	0x68, 0x6d, 0x68, 0x60, 0x3e, 0x83, 0x89, 0xa7, 0x94, 0xb0, 
	0x6d, 0x67, 0x69, 0x5a, 0x64, 0x8f, 0x71, 0xa6, 0x74, 0x97, 
	0x71, 0x72, 0x6f, 0x63, 0x8f, 0x70, 0x94, 0x6c, 0x71, 0x76, 
	0x7c, 0x79, 0x70, 0xa2, 0x6d, 0x76, 0x80, 0x73, 0x77, 0x79, 
	0x7b, 0x79, 0x85, 0x73, 0x79, 0x7e, 0x78, 0x79, 0x79, 0x7e, 
	0x79, 0x79, 0x75, 0x79, 0x89, 0x73, 0x77, 0x75, 0x71, 0x77, 
	0x77, 0x95, 0x75, 0x6f, 0x69, 0x74, 0x6a, 0x79, 0x74, 0x99, 
	0x7f, 0x8f, 0x77, 0x76, 0x48, 0x60, 0x75, 0x82, 0x78, 0x8e, 
	0x8d, 0xa5, 0x86, 0x71, 0x26, 0x4d, 0x89, 0x95, 0x87, 0x81, 
	0x8e, 0xa7, 0x82, 0x6e, 0x16, 0x41, 0x9c, 0x93, 0x90, 0x8f, 
	0x98, 0x97, 0x78, 0x67, 0x26, 0x42, 0xad, 0x8d, 0x8c, 0x90, 
	0x90, 0x99, 0x7b, 0x5d, 0x27, 0x5e, 0xa5, 0x7f, 0x8d, 0x7f, 
	0x92, 0xa5, 0x80, 0x4d, 0x23, 0x72, 0xba, 0x9d, 0x84, 0x70, 
	0x75, 0xa1, 0x83, 0x41, 0x20, 0x71, 0xd2, 0xb2, 0x98, 0x5b, 
	0x73, 0x86, 0x84, 0x68, 0x23, 0x80, 0xbe, 0xb9, 0x99, 0x36, 
	0x90, 0x60, 0x63, 0xa4, 0x2b, 0x95, 0x64, 0xae, 0x86, 0x2d, 
	0xb8, 0x80, 0x2c, 0xf8, 0x36, 0xaa, 0x45, 0x7e, 0x5d, 0x58, 
	0xa3, 0xa4, 0x16, 0xd3, 0x41, 0x92, 0x8e, 0x65, 0x57, 0x9a, 
	0x82, 0xa2, 0x23, 0x92, 0x52, 0x8b, 0xb1, 0x40, 0x6c, 0xbd, 
	0x75, 0xa4, 0x52, 0x79, 0x5d, 0x88, 0x8f, 0x46, 0x68, 0xb3, 
	0x73, 0xb1, 0x73, 0x68, 0x6a, 0x8a, 0x7c, 0x4f, 0x61, 0xa2, 
	0x70, 0xb8, 0x7e, 0x5e, 0x7f, 0x7c, 0x47, 0x5f, 0x87, 0x89, 
	0xbc, 0x7d, 0x66, 0x76, 0x6b, 0x7c, 0x35, 0x71, 0x88, 0x9a, 
	0xbd, 0x8e, 0x6c, 0x72, 0x54, 0x81, 0x1f, 0x8d, 0x80, 0xa7, 
	0xb0, 0xab, 0x70, 0x65, 0x5c, 0x75, 0x1b, 0xa2, 0x7b, 0xa2, 
	0x9b, 0xb4, 0x74, 0x5c, 0x68, 0x68, 0x2f, 0xad, 0x75, 0x9e, 
	0x81, 0xa2, 0x76, 0x79, 0x73, 0x70, 0x4f, 0x8f, 0x74, 0x92, 
	0x6d, 0x79, 0x78, 0x83, 0x77, 0x7c, 0x74, 0x7b, 0x80, 0x74, 
	0x78, 0x79, 0x7f, 0x7e, 0x74, 0x7b, 0x7b, 0x78, 0x7b, 0x79, 
	0x7c, 0x79, 0x77, 0x83, 0x76, 0x78, 0x74, 0x74, 0x78, 0x8c, 
	0x73, 0x60, 0x70, 0x75, 0x7d, 0x72, 0x8c, 0x78, 0x9e, 0x7e, 
	0x76, 0x39, 0x5f, 0x8b, 0x87, 0x7c, 0x84, 0x7b, 0xac, 0x91, 
	0x73, 0x1d, 0x51, 0xa4, 0x86, 0x95, 0x7e, 0x77, 0x9e, 0x93, 
	0x6e, 0x20, 0x48, 0xaf, 0x93, 0x8e, 0x80, 0x75, 0x97, 0x88, 
	0x6b, 0x36, 0x55, 0xb2, 0x8b, 0x90, 0x77, 0x6c, 0x95, 0x8b, 
	0x5a, 0x47, 0x6c, 0xaa, 0x85, 0x8f, 0x6b, 0x75, 0x8e, 0x91, 
	0x3c, 0x58, 0x62, 0xc2, 0x9f, 0x95, 0x59, 0x64, 0x8a, 0x8d, 
	0x2e, 0x65, 0x68, 0xda, 0xaa, 0x9a, 0x2d, 0x7f, 0x73, 0x7e, 
	0x5c, 0x63, 0x8a, 0xaf, 0xae, 0x95, 0x01, 0xa3, 0x69, 0x43, 
	0xb0, 0x6f, 0xa3, 0x6e, 0xa0, 0x77, 0x00, 0xb0, 0x8a, 0x1c, 
	0xee, 0x68, 0x97, 0x6b, 0x77, 0x68, 0x3e, 0x8e, 0xa4, 0x0f, 
	0xc7, 0x50, 0x7b, 0x9a, 0x4f, 0x82, 0x7e, 0x9a, 0xa1, 0x1f, 
	0x89, 0x50, 0x84, 0xac, 0x3c, 0x83, 0x9b, 0x8a, 0xb9, 0x4a, 
	0x71, 0x65, 0x89, 0xa4, 0x50, 0x6b, 0x95, 0x70, 0xb8, 0x6b, 
	0x58, 0x65, 0x8a, 0x94, 0x5f, 0x64, 0x8f, 0x7e, 0xae, 0x6b, 
	0x5b, 0x6d, 0x6c, 0x8d, 0x68, 0x6e, 0x85, 0x85, 0xb8, 0x6b, 
	0x66, 0x6f, 0x51, 0x94, 0x64, 0x73, 0x89, 0x8e, 0xb0, 0x88, 
	0x6d, 0x6e, 0x56, 0x8d, 0x4b, 0x95, 0x80, 0x7d, 0xa1, 0xa7, 
	0x70, 0x62, 0x59, 0x80, 0x41, 0xb0, 0x7c, 0x80, 0x86, 0xb3, 
	0x72, 0x64, 0x68, 0x75, 0x3b, 0xb9, 0x7d, 0x80, 0x6e, 0x9f, 
	0x74, 0x81, 0x74, 0x71, 0x53, 0x98, 0x7c, 0x7d, 0x67, 0x7c, 
	0x77, 0x8d, 0x79, 0x78, 0x74, 0x75, 0x7c, 0x72, 0x79, 0x86, 
	0x79, 0x74, 0x79, 0x78, 0x7e, 0x79, 0x79, 0x79, 0x79, 0x7b, 
	0x78, 0x7f, 0x78, 0x76, 0x7b, 0x75, 0x7b, 0x79, 0x78, 0x83, 
	0x79, 0x7c, 0x75, 0x66, 0x75, 0x8a, 0x7b, 0x6d, 0x81, 0x72, 
	0x94, 0x8f, 0x75, 0x47, 0x62, 0x9f, 0x79, 0x80, 0x6e, 0x97, 
	0x9a, 0x71, 0x47, 0x51, 0xaa, 0x92, 0x74, 0x5f, 0x98, 0xa1, 
	0x6c, 0x5b, 0x4e, 0xb3, 0x7c, 0x8f, 0x6f, 0x4e, 0x93, 0x97, 
	0x68, 0x65, 0x57, 0xb1, 0x89, 0x94, 0x62, 0x4f, 0x8b, 0x97, 
	0x54, 0x74, 0x62, 0xa5, 0x93, 0x98, 0x55, 0x59, 0x85, 0x98, 
	0x33, 0x83, 0x5d, 0xb1, 0xa4, 0x9d, 0x3f, 0x6d, 0x7c, 0x8e, 
	0x2d, 0x8b, 0x60, 0xb9, 0x93, 0xae, 0x1a, 0x95, 0x76, 0x70, 
	0x6b, 0x8b, 0x8c, 0x9d, 0x91, 0x8f, 0x00, 0xa6, 0x70, 0x37, 
	0xbc, 0x9d, 0x8f, 0x6f, 0x85, 0x70, 0x14, 0xb1, 0x7c, 0x14, 
	0xe0, 0x86, 0x8d, 0x73, 0x6c, 0x78, 0x4a, 0x9d, 0x7e, 0x10, 
	0xb9, 0x66, 0x80, 0x92, 0x59, 0x8a, 0x76, 0x95, 0x95, 0x1d, 
	0x7d, 0x6a, 0x79, 0xb7, 0x4c, 0x8a, 0x85, 0x7d, 0xb7, 0x53, 
	0x50, 0x63, 0x7f, 0xc1, 0x52, 0x65, 0x9b, 0x7d, 0xaf, 0x6b, 
	0x48, 0x6a, 0x80, 0xa5, 0x65, 0x62, 0xaf, 0x73, 0x98, 0x6a, 
	0x55, 0x67, 0x73, 0xa3, 0x69, 0x6e, 0xb3, 0x6f, 0x90, 0x76, 
	0x62, 0x6f, 0x64, 0x96, 0x76, 0x79, 0x9f, 0x64, 0x92, 0x8c, 
	0x69, 0x66, 0x72, 0x84, 0x69, 0x96, 0x93, 0x60, 0x81, 0x9c, 
	0x6e, 0x66, 0x66, 0x7e, 0x66, 0xae, 0x95, 0x5e, 0x6b, 0xa9, 
	0x71, 0x75, 0x6c, 0x77, 0x5b, 0xac, 0x8d, 0x62, 0x5b, 0x9d, 
	0x75, 0x8c, 0x76, 0x70, 0x61, 0x90, 0x7f, 0x6d, 0x62, 0x7c, 
	0x77, 0x96, 0x78, 0x74, 0x72, 0x77, 0x7b, 0x78, 0x74, 0x8a, 
	0x77, 0x79, 0x72, 0x79, 0x79, 0x79, 0x7b, 0x7b, 0x7c, 0x78, 
	0x75, 0x7d, 0x7d, 0x79, 0x76, 0x7e, 0x79, 0x7b, 0x7c, 0x79, 
	0x79, 0x7d, 0x89, 0x77, 0x65, 0x7b, 0x72, 0x87, 0x9c, 0x73, 
	0x79, 0x70, 0x97, 0x66, 0x74, 0x72, 0x63, 0x87, 0x97, 0x6b, 
	0x7f, 0x61, 0xa3, 0x67, 0x8f, 0x6f, 0x57, 0x85, 0xa5, 0x67, 
	0x7f, 0x52, 0xb4, 0x62, 0x98, 0x64, 0x4f, 0x88, 0x9d, 0x62, 
	0x7e, 0x4f, 0xb9, 0x71, 0x99, 0x51, 0x5e, 0x86, 0xa2, 0x50, 
	0x83, 0x52, 0xad, 0x8a, 0x99, 0x49, 0x6c, 0x78, 0xa7, 0x3f, 
	0x84, 0x5c, 0x9f, 0x91, 0xab, 0x3e, 0x6d, 0x84, 0x53, 0x7f, 
	0x6f, 0xa1, 0x88, 0xb4, 0x2b, 0x7c, 0x7b, 0x55, 0x7e, 0x88, 
	0x8a, 0x8f, 0x8a, 0x91, 0x22, 0xa3, 0x71, 0x1f, 0xc3, 0x9a, 
	0x97, 0x70, 0x6f, 0x81, 0x3c, 0xb4, 0x63, 0x0a, 0xdf, 0x87, 
	0x94, 0x83, 0x4e, 0x90, 0x5d, 0xa4, 0x5e, 0x13, 0x9d, 0x7c, 
	0x85, 0xab, 0x4c, 0x8c, 0x81, 0x8b, 0x86, 0x2f, 0x68, 0x7c, 
	0x72, 0xc8, 0x4f, 0x7c, 0x85, 0x7c, 0xab, 0x59, 0x38, 0x72, 
	0x75, 0xbb, 0x59, 0x6c, 0xb6, 0x69, 0xae, 0x6f, 0x43, 0x63, 
	0x7e, 0x9f, 0x7c, 0x69, 0xbe, 0x5f, 0x91, 0x73, 0x50, 0x6a, 
	0x8d, 0x9b, 0x71, 0xb3, 0x52, 0x7e, 0x85, 0x5c, 0x60, 0x92, 
	0x84, 0x6c, 0x89, 0xae, 0x4d, 0x7c, 0x8b, 0x66, 0x66, 0x8e, 
	0x74, 0x95, 0xa5, 0x51, 0x68, 0x98, 0x6b, 0x66, 0x89, 0x78, 
	0x71, 0x95, 0xa0, 0x5a, 0x5a, 0xa2, 0x70, 0x7b, 0x80, 0x72, 
	0x6f, 0x98, 0x8a, 0x5e, 0x57, 0x95, 0x74, 0x9f, 0x69, 0x6f, 
	0x86, 0x7c, 0x68, 0x62, 0x77, 0xa3, 0x77, 0x71, 0x75, 0x74, 
	0x77, 0x75, 0x73, 0x79, 0x8b, 0x79, 0x7b, 0x78, 0x71, 0x78, 
	0x77, 0x7c, 0x79, 0x7b, 0x79, 0x7e, 0x79, 0x75, 0x83, 0x83, 
	0x76, 0x73, 0x79, 0x79, 0x7f, 0x78, 0x8e, 0x8a, 0x75, 0x76, 
	0x62, 0x79, 0x6f, 0x81, 0xa2, 0x6f, 0x96, 0x7d, 0x82, 0x67, 
	0x70, 0x6f, 0x5f, 0xa1, 0x61, 0x9f, 0x68, 0x93, 0x62, 0x8a, 
	0x6d, 0x5d, 0x73, 0x9d, 0x5b, 0x8b, 0x5b, 0xad, 0x48, 0xa0, 
	0x6a, 0x6b, 0x7e, 0xa0, 0x58, 0x7b, 0x4b, 0xb6, 0x49, 0x9f, 
	0x5b, 0x83, 0x8c, 0xa4, 0x59, 0x87, 0x53, 0xa3, 0x54, 0xa3, 
	0x53, 0x89, 0x78, 0xa6, 0x61, 0x8c, 0x4f, 0x84, 0x64, 0xb5, 
	0x42, 0x82, 0x81, 0x7f, 0x68, 0x94, 0x66, 0x7d, 0x68, 0xc0, 
	0x37, 0x87, 0x7f, 0x44, 0xa5, 0x7b, 0x86, 0x6e, 0x88, 0x4b, 
	0xb0, 0x6f, 0x18, 0xc3, 0xa5, 0x8c, 0x88, 0x5d, 0x82, 0x5d, 
	0x9e, 0x57, 0x17, 0xd6, 0x8a, 0x76, 0xa7, 0x50, 0x93, 0x6b, 
	0x83, 0x60, 0x29, 0x84, 0x65, 0xc9, 0x59, 0x8a, 0x8b, 0x82, 
	0x80, 0x49, 0x52, 0x8b, 0x5e, 0xc3, 0x5c, 0x72, 0x8f, 0x80, 
	0xa1, 0x6c, 0x2e, 0x86, 0x76, 0xa9, 0x6c, 0x68, 0xa8, 0x6d, 
	0x9c, 0x78, 0x3e, 0x73, 0x94, 0x98, 0x77, 0x7e, 0xa3, 0x55, 
	0x82, 0x7e, 0x50, 0x70, 0x9e, 0x8d, 0x75, 0x8d, 0xa2, 0x4a, 
	0x6e, 0x8b, 0x5d, 0x71, 0x96, 0x8a, 0x7c, 0x84, 0x99, 0x4d, 
	0x66, 0x8e, 0x66, 0x86, 0x9a, 0x7f, 0x75, 0x82, 0x96, 0x4e, 
	0x56, 0x97, 0x6a, 0x88, 0x9c, 0x6d, 0x7d, 0x81, 0x85, 0x57, 
	0x58, 0x97, 0x6e, 0x93, 0x90, 0x68, 0x7e, 0x83, 0x79, 0x67, 
	0x54, 0x86, 0x73, 0xaa, 0x7e, 0x6b, 0x79, 0x7c, 0x77, 0x6a, 
	0x62, 0x77, 0x76, 0xb2, 0x76, 0x72, 0x74, 0x71, 0x76, 0x71, 
	0x73, 0x78, 0x78, 0x92, 0x79, 0x77, 0x77, 0x72, 0x77, 0x78, 
	0x7d, 0x79, 0x79, 0x79, 0x7f, 0x79, 0x78, 0x74, 0x8a, 0x8c, 
	0x6f, 0x71, 0x79, 0x77, 0x75, 0x7d, 0x77, 0xa2, 0x92, 0x6d, 
	0x7c, 0x5e, 0x79, 0x6b, 0x72, 0x9c, 0x66, 0xaa, 0x80, 0x71, 
	0x84, 0x67, 0x70, 0x61, 0x6c, 0xa2, 0x55, 0x9f, 0x6f, 0x7d, 
	0x92, 0x7d, 0x62, 0x65, 0x6b, 0x9b, 0x52, 0x94, 0x68, 0x90, 
	0x5d, 0x96, 0x5a, 0x81, 0x7e, 0x96, 0x56, 0x8c, 0x53, 0x9e, 
	0x49, 0x9f, 0x59, 0x98, 0x81, 0xa3, 0x64, 0x92, 0x38, 0x91, 
	0x4d, 0xa5, 0x55, 0xa0, 0x7c, 0xa8, 0x78, 0x9d, 0x2f, 0x7d, 
	0x48, 0xc1, 0x44, 0x88, 0x86, 0x7f, 0x6e, 0xa7, 0x3c, 0x75, 
	0x4e, 0xbf, 0x4f, 0xa2, 0x81, 0x4c, 0x8e, 0xae, 0x4d, 0x87, 
	0x47, 0x94, 0x61, 0xb6, 0x76, 0x22, 0xbf, 0xa1, 0x55, 0xa2, 
	0x45, 0x89, 0x7f, 0x98, 0x67, 0x20, 0xbb, 0x85, 0x4c, 0xc4, 
	0x52, 0x8d, 0x89, 0x7c, 0x70, 0x40, 0x78, 0x86, 0x5a, 0xc1, 
	0x65, 0x7d, 0x87, 0x6f, 0x94, 0x65, 0x4b, 0x86, 0x7c, 0xae, 
	0x73, 0x6c, 0x7b, 0x7e, 0x8b, 0x7f, 0x3a, 0x7b, 0x8e, 0x91, 
	0x81, 0x7f, 0x88, 0x69, 0x81, 0x7c, 0x48, 0x7d, 0x91, 0x89, 
	0x8c, 0x91, 0x89, 0x57, 0x6d, 0x80, 0x58, 0x7c, 0xa3, 0x73, 
	0x7f, 0x8e, 0x7d, 0x67, 0x69, 0x83, 0x62, 0x84, 0x90, 0x76, 
	0x84, 0x82, 0x7d, 0x6e, 0x64, 0x81, 0x69, 0x91, 0x9f, 0x78, 
	0x81, 0x80, 0x76, 0x62, 0x59, 0x92, 0x6d, 0x98, 0xa5, 0x67, 
	0x80, 0x73, 0x63, 0x52, 0x8a, 0x6f, 0x9d, 0x95, 0x68, 0x82, 
	0x72, 0x70, 0x54, 0x7e, 0x73, 0xb9, 0x73, 0x6a, 0x81, 0x73, 
	0x78, 0x70, 0x62, 0x77, 0x75, 0xb7, 0x72, 0x70, 0x74, 0x70, 
	0x79, 0x6e, 0x75, 0x79, 0x79, 0x88, 0x79, 0x78, 0x79, 0x75, 
	0x7b, 0x77, 0x79, 0x7b, 0x7b, 0x79, 0x78, 0x7f, 0x79, 0x79, 
	0x71, 0x79, 0x88, 0x98, 0x70, 0x79, 0x72, 0x73, 0x72, 0x77, 
	0x75, 0xaa, 0x9d, 0x6a, 0x84, 0x5f, 0x75, 0x65, 0x6b, 0x94, 
	0x61, 0xb2, 0x95, 0x69, 0x8f, 0x59, 0x6a, 0x6a, 0x62, 0x9b, 
	0x4b, 0xa1, 0x84, 0x67, 0xb2, 0x6f, 0x57, 0x74, 0x66, 0x97, 
	0x4e, 0xa7, 0x6e, 0x6f, 0x8f, 0x8e, 0x50, 0x86, 0x68, 0x99, 
	0x61, 0x98, 0x62, 0x76, 0x70, 0x97, 0x4d, 0x98, 0x6e, 0xa2, 
	0x75, 0x94, 0x47, 0x75, 0x5e, 0xa3, 0x4c, 0x9f, 0x73, 0xa8, 
	0x71, 0xa4, 0x35, 0x5d, 0x57, 0xb2, 0x49, 0xa3, 0x81, 0x86, 
	0x74, 0xa4, 0x37, 0x62, 0x59, 0xb9, 0x5b, 0xa3, 0x7d, 0x52, 
	0x8f, 0xab, 0x34, 0x7d, 0x60, 0xb9, 0x6d, 0x9c, 0x64, 0x34, 
	0xa3, 0xa4, 0x3e, 0x97, 0x69, 0x9b, 0x8a, 0x7f, 0x67, 0x3a, 
	0x9a, 0x92, 0x4c, 0xa8, 0x73, 0x84, 0x8a, 0x66, 0x84, 0x5a, 
	0x6e, 0x83, 0x7d, 0xa1, 0x72, 0x81, 0x76, 0x6c, 0x87, 0x74, 
	0x54, 0x8f, 0xa2, 0x8d, 0x78, 0x89, 0x6a, 0x66, 0x6c, 0x7d, 
	0x58, 0x92, 0x9e, 0x6b, 0x87, 0x95, 0x6d, 0x64, 0x67, 0x79, 
	0x61, 0x8f, 0x9d, 0x69, 0x7c, 0x9a, 0x6b, 0x70, 0x66, 0x78, 
	0x66, 0x89, 0xa0, 0x60, 0x83, 0x8a, 0x68, 0x75, 0x73, 0x77, 
	0x6d, 0x87, 0x94, 0x68, 0x89, 0x83, 0x66, 0x7d, 0x6e, 0x84, 
	0x6f, 0x93, 0xaa, 0x67, 0x82, 0x84, 0x5e, 0x6b, 0x5e, 0x8d, 
	0x6e, 0x9b, 0xaa, 0x59, 0x83, 0x7e, 0x62, 0x71, 0x58, 0x82, 
	0x6f, 0xb7, 0x88, 0x65, 0x86, 0x76, 0x64, 0x76, 0x5a, 0x77, 
	0x74, 0xc7, 0x6b, 0x6b, 0x88, 0x6f, 0x6e, 0x71, 0x67, 0x78, 
	0x79, 0xa7, 0x74, 0x71, 0x76, 0x74, 0x78, 0x71, 0x76, 0x80, 
	0x79, 0x79, 0x79, 0x78, 0x7b, 0x79, 0x7b, 0x79, 0x7b, 0x78, 
	0x80, 0x79, 0x79, 0x79, 0x72, 0x79, 0x80, 0x9e, 0x76, 0x79, 
	0x72, 0x78, 0x6f, 0x73, 0x75, 0x73, 0x9c, 0xa9, 0x6d, 0x86, 
	0x63, 0x73, 0x64, 0x6b, 0x8d, 0x5e, 0xa2, 0xa6, 0x68, 0x95, 
	0x59, 0x65, 0x75, 0x63, 0x9a, 0x55, 0xa0, 0x94, 0x5b, 0xac, 
	0x65, 0x56, 0x81, 0x5e, 0x96, 0x5f, 0xac, 0x87, 0x53, 0x9b, 
	0x80, 0x4a, 0x88, 0x5d, 0x93, 0x6b, 0xa5, 0x79, 0x4b, 0x9d, 
	0x8a, 0x4d, 0x8f, 0x59, 0x9b, 0x79, 0xa4, 0x6b, 0x46, 0x83, 
	0x9e, 0x4c, 0x9c, 0x52, 0xac, 0x70, 0xa7, 0x5e, 0x42, 0x78, 
	0xb0, 0x4f, 0x9a, 0x52, 0x9d, 0x76, 0xa7, 0x52, 0x4c, 0x7c, 
	0xc9, 0x60, 0x77, 0x50, 0x80, 0x80, 0xa4, 0x4d, 0x4e, 0x83, 
	0xbf, 0x76, 0x7d, 0x52, 0x63, 0x93, 0xa1, 0x57, 0x65, 0x83, 
	0x9e, 0x85, 0x6d, 0x5e, 0x61, 0x80, 0x8e, 0x69, 0x82, 0x82, 
	0x96, 0x8a, 0x63, 0x64, 0x6d, 0x75, 0x8c, 0x87, 0x7f, 0x82, 
	0x97, 0x6c, 0x69, 0x63, 0x77, 0x76, 0x8c, 0x9b, 0x75, 0x79, 
	0x9c, 0x58, 0x6d, 0x62, 0x79, 0x74, 0x92, 0xa7, 0x67, 0x9a, 
	0x56, 0x70, 0x5d, 0x74, 0x77, 0x8d, 0xa0, 0x60, 0x81, 0x95, 
	0x51, 0x7e, 0x69, 0x70, 0x78, 0x86, 0x9c, 0x5a, 0x84, 0x8f, 
	0x58, 0x7e, 0x77, 0x7d, 0x76, 0x8d, 0x93, 0x61, 0x86, 0x88, 
	0x4e, 0x85, 0x71, 0x86, 0x73, 0x97, 0xa7, 0x66, 0x86, 0x82, 
	0x4a, 0x79, 0x5e, 0x8a, 0x71, 0xa4, 0x96, 0x58, 0x88, 0x79, 
	0x55, 0x81, 0x5f, 0x7b, 0x73, 0xb2, 0x7d, 0x64, 0x8c, 0x6f, 
	0x63, 0x7f, 0x66, 0x77, 0x77, 0xb0, 0x6f, 0x6d, 0x86, 0x6e, 
	0x72, 0x73, 0x70, 0x78, 0x7b, 0x9a, 0x76, 0x75, 0x79, 0x72, 
	0x78, 0x73, 0x77, 0x82, 0x79, 0x77, 0x79, 0x7b, 0x7b, 0x7e, 
	0x79, 0x79, 0x73, 0x78, 0x81, 0x9c, 0x77, 0x79, 0x74, 0x76, 
	0x6e, 0x74, 0x76, 0x75, 0x97, 0xab, 0x6e, 0x7f, 0x66, 0x6e, 
	0x65, 0x70, 0x8b, 0x68, 0x9e, 0xa0, 0x64, 0x96, 0x59, 0x63, 
	0x73, 0x6c, 0x93, 0x6e, 0x9e, 0x9f, 0x55, 0x9b, 0x5b, 0x53, 
	0x8b, 0x5d, 0x93, 0x74, 0xb0, 0x96, 0x45, 0x8b, 0x71, 0x4b, 
	0x9c, 0x4e, 0x92, 0x80, 0xa4, 0x93, 0x39, 0xa4, 0x7b, 0x50, 
	0x87, 0x4d, 0x99, 0x81, 0xa1, 0x8f, 0x3a, 0x9d, 0x94, 0x4c, 
	0x81, 0x42, 0xad, 0x7f, 0x99, 0x76, 0x3f, 0x89, 0xa8, 0x56, 
	0x8c, 0x38, 0xb2, 0x81, 0x9f, 0x69, 0x4e, 0x93, 0xb1, 0x5e, 
	0x68, 0x34, 0x9e, 0x91, 0x5b, 0x52, 0x83, 0xc1, 0x73, 0x3c, 
	0x85, 0x79, 0x84, 0x6a, 0x50, 0x82, 0xb6, 0x7d, 0x59, 0x79, 
	0x7e, 0x7c, 0x68, 0x76, 0xbb, 0x7f, 0x6a, 0x57, 0x7b, 0x76, 
	0x80, 0x81, 0x73, 0x7b, 0xac, 0x67, 0x77, 0x5b, 0x73, 0x88, 
	0x86, 0x92, 0x76, 0x85, 0x9c, 0x54, 0x65, 0x61, 0x70, 0x93, 
	0x82, 0x97, 0x71, 0x86, 0x94, 0x4f, 0x6d, 0x61, 0x6a, 0x91, 
	0x92, 0x9a, 0x66, 0x88, 0x97, 0x40, 0x77, 0x60, 0x71, 0x86, 
	0x98, 0x95, 0x63, 0x84, 0x88, 0x45, 0x7b, 0x71, 0x7c, 0x95, 
	0x9e, 0x69, 0x7f, 0x82, 0x3f, 0x86, 0x6d, 0x82, 0x74, 0x9b, 
	0x95, 0x6e, 0x8b, 0x75, 0x45, 0x88, 0x63, 0x7b, 0x72, 0xa6, 
	0x7f, 0x66, 0x9e, 0x6b, 0x53, 0x89, 0x68, 0x74, 0x74, 0xad, 
	0x75, 0x6a, 0x8c, 0x6f, 0x65, 0x7f, 0x71, 0x76, 0x77, 0xa5, 
	0x70, 0x73, 0x80, 0x71, 0x75, 0x71, 0x78, 0x78, 0x8a, 0x77, 
	0x76, 0x7c, 0x76, 0x79, 0x75, 0x7d, 0x79, 0x79, 0x79, 0x7b, 
	0x7e, 0x79, 0x79, 0x79, 0x79, 0x75, 0x79, 0x81, 0x92, 0x77, 
	0x77, 0x75, 0x71, 0x75, 0x72, 0x7c, 0x8b, 0xa0, 0x73, 0x81, 
	0x6c, 0x6f, 0x6a, 0x72, 0x81, 0x8a, 0x92, 0x99, 0x6c, 0x80, 
	0x5f, 0x66, 0x70, 0x6e, 0x8b, 0x8c, 0x93, 0x98, 0x59, 0x8b, 
	0x53, 0x5c, 0x8c, 0x62, 0x8f, 0x8b, 0x99, 0x91, 0x4e, 0x8e, 
	0x60, 0x56, 0x97, 0x58, 0x8a, 0x90, 0x99, 0x8d, 0x50, 0x95, 
	0x74, 0x58, 0x7e, 0x56, 0x8f, 0x88, 0x9e, 0x77, 0x50, 0x91, 
	0x85, 0x57, 0x84, 0x58, 0xa2, 0x85, 0x93, 0x73, 0x50, 0x84, 
	0x95, 0x5d, 0x82, 0x4f, 0xae, 0x6a, 0x8e, 0x6c, 0x5e, 0x8c, 
	0xa6, 0x64, 0x79, 0x46, 0x9e, 0x5e, 0x82, 0x6c, 0x60, 0x89, 
	0xbf, 0x6d, 0x76, 0x4e, 0x89, 0x62, 0x80, 0x71, 0x5c, 0x80, 
	0xc8, 0x6c, 0x80, 0x57, 0x82, 0x76, 0x7b, 0x75, 0x66, 0x7e, 
	0xc2, 0x69, 0x54, 0x7c, 0x7f, 0x76, 0x7e, 0x77, 0x83, 0xaa, 
	0x68, 0x73, 0x56, 0x73, 0x88, 0x84, 0x85, 0x70, 0x86, 0x9c, 
	0x64, 0x69, 0x62, 0x6b, 0x95, 0x8e, 0x86, 0x76, 0x86, 0x9b, 
	0x55, 0x6c, 0x58, 0x6f, 0x95, 0x9b, 0x93, 0x6f, 0x7d, 0x90, 
	0x49, 0x74, 0x5a, 0x6e, 0x87, 0xa0, 0x97, 0x79, 0x7c, 0x80, 
	0x44, 0x7c, 0x62, 0x75, 0x7f, 0x8f, 0x8f, 0x8f, 0x75, 0x47, 
	0x83, 0x6c, 0x75, 0x78, 0x99, 0x7b, 0x79, 0x9c, 0x6e, 0x4e, 
	0x82, 0x72, 0x73, 0x6e, 0xa3, 0x71, 0x72, 0x98, 0x72, 0x5a, 
	0x85, 0x73, 0x77, 0x71, 0xa7, 0x6e, 0x74, 0x8a, 0x74, 0x69, 
	0x74, 0x78, 0x78, 0x96, 0x71, 0x75, 0x80, 0x76, 0x76, 0x6f, 
	0x7e, 0x79, 0x82, 0x78, 0x77, 0x7e, 0x78, 0x79, 0x77, 0x7b, 
	0x7b, 0x79, 0x79, 0x7b, 0x7e, 0x79, 0x79, 0x79, 0x79, 0x77, 
	0x79, 0x7e, 0x8a, 0x78, 0x79, 0x75, 0x75, 0x77, 0x6e, 0x81, 
	0x85, 0x97, 0x75, 0x80, 0x74, 0x72, 0x6b, 0x73, 0x79, 0x9e, 
	0x86, 0x95, 0x6f, 0x75, 0x6a, 0x75, 0x64, 0x6b, 0x84, 0x9d, 
	0x8f, 0x95, 0x66, 0x71, 0x5c, 0x72, 0x76, 0x65, 0x8c, 0x94, 
	0x92, 0x8c, 0x5d, 0x58, 0x78, 0x84, 0x5d, 0x93, 0x89, 0x9d, 
	0x7b, 0x5c, 0x85, 0x5c, 0x72, 0x7d, 0x65, 0x94, 0x83, 0x99, 
	0x7c, 0x5c, 0x87, 0x66, 0x6a, 0x6b, 0x98, 0x6f, 0x8c, 0x80, 
	0x63, 0x7d, 0x73, 0x6d, 0x86, 0x6d, 0xa2, 0x53, 0x8b, 0x81, 
	0x6a, 0x85, 0x7c, 0x63, 0x8f, 0x67, 0x9f, 0x42, 0x82, 0x74, 
	0x65, 0x92, 0x8f, 0x64, 0x93, 0x6f, 0xa6, 0x4e, 0x71, 0x73, 
	0x68, 0x9a, 0x8f, 0x5d, 0x9a, 0x63, 0x93, 0x6e, 0x69, 0x70, 
	0x6a, 0x8d, 0x86, 0x6c, 0x9c, 0x65, 0x89, 0x84, 0x65, 0x73, 
	0x76, 0x85, 0x8a, 0x75, 0x8d, 0x59, 0x7e, 0x8f, 0x71, 0x7d, 
	0x74, 0x8a, 0x84, 0x6f, 0x7c, 0x5e, 0x9e, 0x7d, 0x83, 0x80, 
	0x81, 0x77, 0x63, 0x57, 0x71, 0x97, 0x97, 0x89, 0x84, 0x82, 
	0x6c, 0x52, 0x7e, 0x5a, 0x6b, 0x86, 0xa1, 0x90, 0x92, 0x88, 
	0x69, 0x4f, 0x78, 0x58, 0x69, 0x7d, 0xa1, 0x7d, 0x8a, 0x90, 
	0x6e, 0x4e, 0x7b, 0x71, 0x6d, 0x74, 0x9d, 0x6d, 0x88, 0x87, 
	0x71, 0x55, 0x85, 0x7f, 0x75, 0x71, 0x9c, 0x73, 0x87, 0x71, 
	0x63, 0x79, 0x82, 0x79, 0x75, 0x8e, 0x73, 0x75, 0x86, 0x74, 
	0x6d, 0x76, 0x84, 0x79, 0x78, 0x86, 0x75, 0x78, 0x80, 0x78, 
	0x76, 0x75, 0x7e, 0x7d, 0x79, 0x78, 0x7d, 0x79, 0x79, 0x79, 
	0x79, 0x7b, 0x7c, 0x79, 0x79, 0x79, 0x78, 0x79, 0x86, 0x79, 
	0x7b, 0x77, 0x77, 0x79, 0x73, 0x7e, 0x77, 0x93, 0x77, 0x7f, 
	0x79, 0x7d, 0x6b, 0x73, 0x73, 0x95, 0x73, 0x9a, 0x73, 0x7e, 
	0x76, 0x84, 0x54, 0x70, 0x78, 0x9c, 0x74, 0xa0, 0x70, 0x74, 
	0x70, 0x8e, 0x50, 0x6b, 0x81, 0x8f, 0x75, 0x99, 0x6d, 0x75, 
	0x64, 0x96, 0x61, 0x69, 0x89, 0x7d, 0x7d, 0x81, 0x6d, 0x86, 
	0x5b, 0x7c, 0x7f, 0x77, 0x95, 0x75, 0x7d, 0x85, 0x6d, 0x8f, 
	0x52, 0x7c, 0x7f, 0x71, 0x9d, 0x67, 0x78, 0x85, 0x70, 0x96, 
	0x4c, 0x7b, 0x7b, 0x7c, 0xa6, 0x5d, 0x7f, 0x87, 0x73, 0x93, 
	0x4f, 0x6d, 0x86, 0x73, 0xa8, 0x61, 0x79, 0x77, 0x6a, 0x93, 
	0x58, 0x67, 0x9c, 0x71, 0xa6, 0x60, 0x68, 0x7d, 0x6c, 0x87, 
	0x5f, 0x69, 0xb4, 0x69, 0x9f, 0x69, 0x63, 0x6f, 0x73, 0x89, 
	0x62, 0xad, 0x66, 0x8d, 0x81, 0x62, 0x74, 0x79, 0x84, 0x62, 
	0x82, 0xa7, 0x58, 0x79, 0x8a, 0x6c, 0x70, 0x81, 0x87, 0x5e, 
	0x7d, 0xa1, 0x60, 0x73, 0x97, 0x76, 0x7f, 0x89, 0x61, 0x71, 
	0x8f, 0x62, 0x63, 0x84, 0x8d, 0x8b, 0x99, 0x74, 0x69, 0x61, 
	0x8d, 0x62, 0x60, 0x7b, 0x9a, 0x75, 0x94, 0x81, 0x6f, 0x58, 
	0x8a, 0x73, 0x64, 0x76, 0x91, 0x6e, 0x92, 0x84, 0x70, 0x57, 
	0x89, 0x86, 0x6e, 0x73, 0x8f, 0x6f, 0x88, 0x7b, 0x72, 0x5c, 
	0x80, 0x95, 0x75, 0x75, 0x8b, 0x71, 0x7e, 0x75, 0x67, 0x92, 
	0x78, 0x76, 0x83, 0x75, 0x77, 0x80, 0x77, 0x6d, 0x7b, 0x89, 
	0x79, 0x79, 0x81, 0x79, 0x78, 0x7e, 0x78, 0x75, 0x78, 0x7e, 
	0x7d, 0x79, 0x7c, 0x79, 0x79, 0x7b, 0x79, 0x77, 0x7f, 0x7b, 
	0x7b, 0x78, 0x79, 0x79, 0x78, 0x72, 0x89, 0x79, 0x79, 0x84, 
	0x6e, 0x77, 0x7f, 0x6b, 0x91, 0x77, 0x79, 0x79, 0x92, 0x5c, 
	0x7c, 0x75, 0x7f, 0x62, 0xa4, 0x75, 0x75, 0x77, 0x9a, 0x52, 
	0x7c, 0x70, 0x74, 0x5e, 0xac, 0x73, 0x7b, 0x73, 0x9e, 0x53, 
	0x83, 0x71, 0x68, 0x5f, 0xa5, 0x71, 0x80, 0x6d, 0x98, 0x69, 
	0x88, 0x71, 0x60, 0x5e, 0xa5, 0x71, 0x95, 0x67, 0x95, 0x72, 
	0x7d, 0x74, 0x56, 0x57, 0xaf, 0x73, 0x91, 0x61, 0x97, 0x7d, 
	0x75, 0x53, 0x60, 0xac, 0x75, 0x91, 0x5a, 0x90, 0x8d, 0x73, 
	0x80, 0x53, 0x6f, 0xa3, 0x64, 0x98, 0x5a, 0x8b, 0x90, 0x6e, 
	0x81, 0x4f, 0x71, 0xa2, 0x67, 0xa3, 0x57, 0x8d, 0x8f, 0x66, 
	0x56, 0x78, 0x97, 0x6c, 0x9f, 0x58, 0x90, 0x94, 0x5e, 0x70, 
	0x60, 0x73, 0x8a, 0x6d, 0x91, 0x5c, 0x94, 0x9c, 0x6d, 0x6a, 
	0x63, 0x73, 0x85, 0x76, 0x82, 0x64, 0x8b, 0xa1, 0x79, 0x67, 
	0x74, 0x79, 0x7d, 0x74, 0x84, 0x6a, 0x82, 0x8a, 0x86, 0x64, 
	0x78, 0x7c, 0x6c, 0x81, 0x83, 0x6e, 0x73, 0x92, 0x8a, 0x67, 
	0x79, 0x73, 0x68, 0x85, 0x7e, 0x71, 0x6a, 0x96, 0x94, 0x6b, 
	0x78, 0x75, 0x6f, 0x81, 0x74, 0x68, 0x84, 0xa3, 0x6f, 0x79, 
	0x74, 0x7c, 0x75, 0x68, 0x7b, 0xa1, 0x76, 0x78, 0x75, 0x79, 
	0x7f, 0x77, 0x6c, 0x79, 0x93, 0x79, 0x79, 0x7b, 0x78, 0x78, 
	0x7f, 0x79, 0x6f, 0x79, 0x88, 0x80, 0x78, 0x78, 0x7d, 0x76, 
	0x79, 0x7e, 0x79, 0x79, 0x7b, 0x79, 0x7b, 0x7c, 0x79, 0x77, 
	0x7c, 0x7b, 0x82, 0x74, 0x7c, 0x79, 0x77, 0x75, 0x80, 0x77, 
	0x77, 0x85, 0x6e, 0x85, 0x76, 0x74, 0x73, 0x87, 0x73, 0x76, 
	0x79, 0x8a, 0x6d, 0x88, 0x72, 0x70, 0x6d, 0x90, 0x6d, 0x76, 
	0x78, 0x94, 0x68, 0x8e, 0x6d, 0x6d, 0x64, 0x9d, 0x63, 0x78, 
	0x76, 0xa4, 0x5e, 0x95, 0x67, 0x68, 0x61, 0xa4, 0x61, 0x82, 
	0x75, 0xaa, 0x5c, 0x92, 0x61, 0x5f, 0x63, 0xab, 0x64, 0x87, 
	0x74, 0xa4, 0x65, 0x8f, 0x5e, 0x60, 0x64, 0xac, 0x59, 0x8f, 
	0x73, 0xa8, 0x68, 0x8b, 0x5b, 0x63, 0x69, 0xad, 0x4e, 0x91, 
	0x73, 0xa5, 0x68, 0x92, 0x5e, 0x61, 0x6c, 0xa3, 0x56, 0x92, 
	0x71, 0xa0, 0x6b, 0x92, 0x60, 0x60, 0x6f, 0x93, 0x56, 0x89, 
	0x71, 0xa8, 0x92, 0x61, 0x61, 0x72, 0x83, 0x55, 0x8c, 0x72, 
	0xa9, 0x86, 0x8c, 0x65, 0x69, 0x73, 0x7f, 0x52, 0x89, 0x72, 
	0x9a, 0x85, 0x99, 0x67, 0x71, 0x71, 0x79, 0x4f, 0x85, 0x74, 
	0x95, 0x84, 0xa2, 0x6b, 0x77, 0x6e, 0x77, 0x5b, 0x7d, 0x76, 
	0x8c, 0x81, 0xa4, 0x71, 0x78, 0x6d, 0x62, 0x7b, 0x77, 0x7b, 
	0x7e, 0xa9, 0x73, 0x79, 0x72, 0x77, 0x6a, 0x7b, 0x78, 0x72, 
	0xa7, 0x74, 0x73, 0x75, 0x71, 0x7f, 0x79, 0x71, 0x78, 0x9d, 
	0x78, 0x75, 0x78, 0x75, 0x81, 0x79, 0x75, 0x78, 0x89, 0x79, 
	0x77, 0x78, 0x80, 0x77, 0x79, 0x80, 0x79, 0x7d, 0x7b, 0x7b, 
	0x79, 0x79, 0x7c, 0x79, 0x78, 0x78, 0x80, 0x79, 0x79, 0x7b, 
	0x77, 0x79, 0x79, 0x77, 0x84, 0x78, 0x79, 0x79, 0x7c, 0x74, 
	0x77, 0x7f, 0x77, 0x84, 0x76, 0x79, 0x78, 0x7b, 0x6f, 0x77, 
	0x79, 0x87, 0x76, 0x87, 0x74, 0x78, 0x78, 0x68, 0x78, 0x79, 
	0x8b, 0x73, 0x90, 0x74, 0x76, 0x78, 0x65, 0x79, 0x8c, 0x71, 
	0x94, 0x74, 0x76, 0x76, 0x60, 0x7d, 0x78, 0x90, 0x72, 0x92, 
	0x75, 0x75, 0x77, 0x79, 0x5d, 0x7e, 0x79, 0x8b, 0x71, 0x9a, 
	0x74, 0x72, 0x77, 0x77, 0x5a, 0x78, 0x94, 0x70, 0xa0, 0x73, 
	0x73, 0x77, 0x75, 0x54, 0x76, 0x78, 0x9a, 0x70, 0xa6, 0x74, 
	0x76, 0x77, 0x77, 0x5a, 0x78, 0x79, 0x9d, 0x70, 0x94, 0x75, 
	0x77, 0x76, 0x5d, 0x77, 0x79, 0x99, 0x73, 0x8f, 0x75, 0x79, 
	0x76, 0x79, 0x61, 0x76, 0x79, 0x96, 0x76, 0x8b, 0x76, 0x79, 
	0x77, 0x79, 0x64, 0x76, 0x79, 0x8e, 0x77, 0x8d, 0x78, 0x79, 
	0x78, 0x79, 0x69, 0x78, 0x79, 0x82, 0x77, 0x8f, 0x78, 0x79, 
	0x78, 0x71, 0x79, 0x79, 0x78, 0x8c, 0x78, 0x79, 0x79, 0x76, 
	0x7b, 0x79, 0x79, 0x84, 0x79, 0x79, 0x7c, 0x7c, 0x79, 0x7b, 
	0x78, 0x7b, 0x7b, 0x79, 0x7b, 0x7b, 0x78, 0x7d, 0x79, 0x78, 
	0x7b, 0x7d, 0x78, 0x7b, 0x7d, 0x78, 0x80, 0x78, 0x79, 0x76, 
	0x79, 0x81, 0x79, 0x78, 0x79, 0x83, 0x77, 0x79, 0x78, 0x79, 
	0x82, 0x77, 0x78, 0x79, 0x83, 0x76, 0x78, 0x79, 0x82, 0x76, 
	0x78, 0x7e, 0x79, 0x79, 0x7b, 0x7b, 0x7b, 0x79, 0x7b, 0x7b, 
	0x62, 0xb5, 0x1c, 0x36, 0x54, 0x2e, 0x6f, 0xb4, 0x77, 0x25, 
	0x1c, 0x3d, 0xf9, 0xae, 0x09, 0x39, 0xdc, 0xbd, 0x14, 0xb3, 
};
unsigned char *tmp_content = (void*)0;
const unsigned char ops_content[0] __attribute__ ((aligned(4))) = {
};
unsigned char data_content[40] __attribute__ ((aligned(4)));
